{
  "version": "1.0",
  "truncation": null,
  "padding": null,
  "added_tokens": [
    {
      "id": 0,
      "content": "<|endoftext|>",
      "single_word": false,
      "lstrip": false,
      "rstrip": false,
      "normalized": false,
      "special": true
    }
  ],
  "normalizer": {
    "type": "Sequence",
    "normalizers": [
      {
        "type": "NFD"
      },
      {
        "type": "Lowercase"
      },
      {
        "type": "Strip",
        "strip_left": true,
        "strip_right": true
      },
      {
        "type": "StripAccents"
      }
    ]
  },
  "pre_tokenizer": {
    "type": "ByteLevel",
    "add_prefix_space": false,
    "trim_offsets": true,
    "use_regex": true
  },
  "post_processor": {
    "type": "ByteLevel",
    "add_prefix_space": true,
    "trim_offsets": true,
    "use_regex": true
  },
  "decoder": {
    "type": "ByteLevel",
    "add_prefix_space": true,
    "trim_offsets": true,
    "use_regex": true
  },
  "model": {
    "type": "BPE",
    "dropout": null,
    "unk_token": null,
    "continuing_subword_prefix": null,
    "end_of_word_suffix": null,
    "fuse_unk": false,
    "byte_fallback": false,
    "vocab": {
      "<|endoftext|>": 0,
      "!": 1,
      "\"": 2,
      "#": 3,
      "$": 4,
      "%": 5,
      "&": 6,
      "'": 7,
      "(": 8,
      ")": 9,
      "*": 10,
      "+": 11,
      ",": 12,
      "-": 13,
      ".": 14,
      "/": 15,
      "0": 16,
      "1": 17,
      "2": 18,
      "3": 19,
      "4": 20,
      "5": 21,
      "6": 22,
      "7": 23,
      "8": 24,
      "9": 25,
      ":": 26,
      ";": 27,
      "<": 28,
      "=": 29,
      ">": 30,
      "?": 31,
      "@": 32,
      "[": 33,
      "\\": 34,
      "]": 35,
      "^": 36,
      "_": 37,
      "`": 38,
      "a": 39,
      "b": 40,
      "c": 41,
      "d": 42,
      "e": 43,
      "f": 44,
      "g": 45,
      "h": 46,
      "i": 47,
      "j": 48,
      "k": 49,
      "l": 50,
      "m": 51,
      "n": 52,
      "o": 53,
      "p": 54,
      "q": 55,
      "r": 56,
      "s": 57,
      "t": 58,
      "u": 59,
      "v": 60,
      "w": 61,
      "x": 62,
      "y": 63,
      "z": 64,
      "{": 65,
      "|": 66,
      "}": 67,
      "~": 68,
      "¡": 69,
      "¢": 70,
      "£": 71,
      "¤": 72,
      "¥": 73,
      "¦": 74,
      "§": 75,
      "¨": 76,
      "©": 77,
      "ª": 78,
      "«": 79,
      "¬": 80,
      "®": 81,
      "¯": 82,
      "°": 83,
      "±": 84,
      "²": 85,
      "³": 86,
      "´": 87,
      "µ": 88,
      "¶": 89,
      "·": 90,
      "¸": 91,
      "¹": 92,
      "º": 93,
      "»": 94,
      "¼": 95,
      "½": 96,
      "¾": 97,
      "¿": 98,
      "Â": 99,
      "Ã": 100,
      "Ä": 101,
      "Å": 102,
      "É": 103,
      "Ê": 104,
      "Ë": 105,
      "Î": 106,
      "Ï": 107,
      "Ð": 108,
      "Ñ": 109,
      "Ò": 110,
      "Ó": 111,
      "Õ": 112,
      "Ö": 113,
      "×": 114,
      "Ø": 115,
      "Ù": 116,
      "Ú": 117,
      "Û": 118,
      "à": 119,
      "á": 120,
      "â": 121,
      "ã": 122,
      "ä": 123,
      "å": 124,
      "æ": 125,
      "ç": 126,
      "è": 127,
      "é": 128,
      "ê": 129,
      "ï": 130,
      "ð": 131,
      "ĉ": 132,
      "Ġ": 133,
      "ġ": 134,
      "Ģ": 135,
      "ģ": 136,
      "Ĥ": 137,
      "ĥ": 138,
      "Ħ": 139,
      "ħ": 140,
      "Ĩ": 141,
      "ĩ": 142,
      "Ī": 143,
      "ī": 144,
      "Ĭ": 145,
      "ĭ": 146,
      "Į": 147,
      "į": 148,
      "İ": 149,
      "ı": 150,
      "Ĳ": 151,
      "ĳ": 152,
      "Ĵ": 153,
      "ĵ": 154,
      "Ķ": 155,
      "ķ": 156,
      "ĸ": 157,
      "Ĺ": 158,
      "ĺ": 159,
      "Ļ": 160,
      "ļ": 161,
      "Ľ": 162,
      "ľ": 163,
      "Ŀ": 164,
      "ŀ": 165,
      "Ł": 166,
      "ł": 167,
      "Ń": 168,
      "Ġt": 169,
      "he": 170,
      "Ġa": 171,
      "in": 172,
      "Ġthe": 173,
      "Ġs": 174,
      "Ġw": 175,
      "re": 176,
      "ou": 177,
      "on": 178,
      "Ġi": 179,
      "ha": 180,
      "er": 181,
      "Ġb": 182,
      "Ġc": 183,
      "Ġm": 184,
      "nd": 185,
      "Ġo": 186,
      "Ġf": 187,
      "Ġd": 188,
      "ing": 189,
      "or": 190,
      "Ġp": 191,
      "an": 192,
      "ed": 193,
      "ll": 194,
      "en": 195,
      "Ġto": 196,
      "es": 197,
      "you": 198,
      "it": 199,
      "is": 200,
      "Ġl": 201,
      "Ġof": 202,
      "Ġin": 203,
      "Ġg": 204,
      "ar": 205,
      "at": 206,
      "Ġand": 207,
      "Ġyou": 208,
      "as": 209,
      "hat": 210,
      "Ġn": 211,
      "om": 212,
      "Ġhe": 213,
      "Ġh": 214,
      "ic": 215,
      "le": 216,
      "ow": 217,
      "ve": 218,
      "ot": 219,
      "Ġha": 220,
      "al": 221,
      "Ġit": 222,
      "Ġbe": 223,
      "us": 224,
      "'s": 225,
      "Ġth": 226,
      "Ġe": 227,
      "ay": 228,
      "Ġis": 229,
      "Ġthat": 230,
      "et": 231,
      "Ġon": 232,
      "ion": 233,
      "id": 234,
      "Ġre": 235,
      "gh": 236,
      "Ġr": 237,
      "Ġwe": 238,
      "ent": 239,
      "ut": 240,
      "ld": 241,
      "Ġwas": 242,
      "ac": 243,
      "ver": 244,
      "Ġk": 245,
      "am": 246,
      "Ġst": 247,
      "Ġfor": 248,
      "st": 249,
      "im": 250,
      "the": 251,
      "..": 252,
      "ly": 253,
      "se": 254,
      "ad": 255,
      "ir": 256,
      "Ġu": 257,
      "oo": 258,
      "Ġ.": 259,
      "ght": 260,
      "'t": 261,
      "and": 262,
      "ke": 263,
      "Ġme": 264,
      "out": 265,
      "all": 266,
      "Ġan": 267,
      "ith": 268,
      "Ġj": 269,
      "ro": 270,
      "Ġas": 271,
      "ur": 272,
      "Ġwith": 273,
      "Ġdo": 274,
      "ri": 275,
      "Ġse": 276,
      "ce": 277,
      "Ġwh": 278,
      "ch": 279,
      "ct": 280,
      "ter": 281,
      "Ġli": 282,
      "ill": 283,
      "ome": 284,
      "th": 285,
      "Ġgo": 286,
      "Ġthis": 287,
      "Ġare": 288,
      "Ġnot": 289,
      "Ġat": 290,
      "il": 291,
      "Ġhave": 292,
      "Ġ1": 293,
      "ould": 294,
      "now": 295,
      "ight": 296,
      "ant": 297,
      "ust": 298,
      "Ġne": 299,
      "ation": 300,
      "op": 301,
      "we": 302,
      "ain": 303,
      "ye": 304,
      "Ġde": 305,
      "un": 306,
      "Ġfr": 307,
      "ge": 308,
      "Ġhis": 309,
      "Ġ,": 310,
      "Ġso": 311,
      "Ġthey": 312,
      "ul": 313,
      "Ġal": 314,
      "Ġmo": 315,
      "Ġ\"": 316,
      "her": 317,
      "...": 318,
      "Ġknow": 319,
      "Ġcan": 320,
      "our": 321,
      "ol": 322,
      "Ġall": 323,
      "pp": 324,
      "Ġab": 325,
      "um": 326,
      "Ġwhat": 327,
      "Ġsh": 328,
      "Ġmy": 329,
      "Ġcon": 330,
      "Ġv": 331,
      "est": 332,
      "if": 333,
      "Ġ?": 334,
      "Ġor": 335,
      "Ġyour": 336,
      "Ġwhe": 337,
      "ie": 338,
      "ist": 339,
      "ers": 340,
      "Ġthere": 341,
      "qu": 342,
      "ab": 343,
      "Ġby": 344,
      "Ġfrom": 345,
      "Ġbut": 346,
      "Ġcom": 347,
      "one": 348,
      "Ġsu": 349,
      "art": 350,
      "ess": 351,
      "Ġone": 352,
      "Ġ2": 353,
      "han": 354,
      "pe": 355,
      "so": 356,
      "red": 357,
      "Ġshe": 358,
      "Ġher": 359,
      "os": 360,
      "ig": 361,
      "Ġup": 362,
      "ally": 363,
      "Ġwor": 364,
      "Ġtr": 365,
      "Ġhad": 366,
      "ah": 367,
      "Ġsa": 368,
      "'re": 369,
      "ate": 370,
      "Ġhim": 371,
      "very": 372,
      "Ġpl": 373,
      "Ġout": 374,
      "ook": 375,
      "res": 376,
      "ack": 377,
      "ood": 378,
      "nt": 379,
      "Ġus": 380,
      "Ġlike": 381,
      "Ġle": 382,
      "Ġpro": 383,
      "ame": 384,
      "Ġno": 385,
      "ive": 386,
      "em": 387,
      "Ġex": 388,
      "ak": 389,
      "ck": 390,
      "Ġ(": 391,
      "'m": 392,
      "ake": 393,
      "Ġwere": 394,
      "fe": 395,
      "ink": 396,
      "what": 397,
      "âĢ": 398,
      "Ġget": 399,
      "Ġabout": 400,
      "Ġdon": 401,
      "ast": 402,
      "ong": 403,
      "ind": 404,
      "ap": 405,
      "ound": 406,
      "ity": 407,
      "ard": 408,
      "ry": 409,
      "oh": 410,
      "el": 411,
      "Ġjust": 412,
      "Ġte": 413,
      "ort": 414,
      "ag": 415,
      "ich": 416,
      "Ġman": 417,
      "ies": 418,
      "Ġwho": 419,
      "Ġar": 420,
      "Ġ19": 421,
      "Ġdid": 422,
      "Ġhere": 423,
      "Ġwill": 424,
      "ber": 425,
      "yeah": 426,
      "Ġif": 427,
      "no": 428,
      "Ġch": 429,
      "ine": 430,
      "Ġthem": 431,
      "ime": 432,
      "Ġun": 433,
      "Ġsome": 434,
      "are": 435,
      "Ġwant": 436,
      "Ġwould": 437,
      "to": 438,
      "ud": 439,
      "ore": 440,
      "Ġ20": 441,
      "Ġbr": 442,
      "Ġ'": 443,
      "Ġthink": 444,
      "ven": 445,
      "'ll": 446,
      "ous": 447,
      "ther": 448,
      "Ġwhen": 449,
      "Ġany": 450,
      "Ġpe": 451,
      "Ġlo": 452,
      "ment": 453,
      "Ġright": 454,
      "hing": 455,
      "Ġgot": 456,
      "Ġam": 457,
      "Ġhas": 458,
      "use": 459,
      "Ġfe": 460,
      "ca": 461,
      "itt": 462,
      "Ġco": 463,
      "Ġwhich": 464,
      "ice": 465,
      "but": 466,
      "Ġag": 467,
      "ough": 468,
      "own": 469,
      "Ġsee": 470,
      "Ġgr": 471,
      "that": 472,
      "ide": 473,
      "Ġpr": 474,
      "Ġcl": 475,
      "Ġsaid": 476,
      "ia": 477,
      "Ġsay": 478,
      "iv": 479,
      "ure": 480,
      "Ġro": 481,
      "te": 482,
      "ne": 483,
      "Ġen": 484,
      "Ġtime": 485,
      "way": 486,
      "Ġnow": 487,
      "yes": 488,
      "Ġtw": 489,
      "ian": 490,
      "Ġthen": 491,
      "ip": 492,
      "od": 493,
      "Ġbeen": 494,
      "Ġaf": 495,
      "ep": 496,
      "Ġsp": 497,
      "ace": 498,
      "ick": 499,
      "ople": 500,
      "Ġtheir": 501,
      "be": 502,
      "Ġqu": 503,
      "ra": 504,
      "'ve": 505,
      "Ġlook": 506,
      "ok": 507,
      "Ġmore": 508,
      "na": 509,
      "lf": 510,
      "ish": 511,
      "reat": 512,
      "Ġpeople": 513,
      "--": 514,
      "Ġgoing": 515,
      "Ġother": 516,
      "ars": 517,
      "wh": 518,
      "mp": 519,
      "Ġoff": 520,
      "age": 521,
      "Ġhow": 522,
      "ite": 523,
      "ree": 524,
      "other": 525,
      "act": 526,
      "Ġcould": 527,
      "ary": 528,
      "ci": 529,
      "Ġover": 530,
      "Ġ=": 531,
      "Ġback": 532,
      "ose": 533,
      "Ġye": 534,
      "Ġgood": 535,
      "irst": 536,
      "cause": 537,
      "ass": 538,
      "erm": 539,
      "ings": 540,
      "Ġvery": 541,
      "ount": 542,
      "well": 543,
      "ond": 544,
      "Ġtwo": 545,
      "Ġbl": 546,
      "Ġwork": 547,
      "Ġpart": 548,
      "ble": 549,
      "ue": 550,
      "Ġad": 551,
      "Ġcomp": 552,
      "Ġcha": 553,
      "Ġthan": 554,
      "Ġfirst": 555,
      "Ġnew": 556,
      "for": 557,
      "ire": 558,
      "ans": 559,
      "per": 560,
      "Ġbo": 561,
      "omet": 562,
      "pt": 563,
      "ated": 564,
      "Ġmar": 565,
      "ase": 566,
      "whe": 567,
      "ĠĠ": 568,
      "Ġinto": 569,
      "ions": 570,
      "Ġdown": 571,
      "Ġway": 572,
      "hed": 573,
      "av": 574,
      "00": 575,
      "de": 576,
      "alk": 577,
      "Ġalso": 578,
      "orn": 579,
      "ade": 580,
      "Ġcome": 581,
      "Ġcall": 582,
      "Ġwhere": 583,
      "iz": 584,
      "ittle": 585,
      "Ġpo": 586,
      "nder": 587,
      "ought": 588,
      "Ġwell": 589,
      "ater": 590,
      "Ġy": 591,
      "ach": 592,
      "cl": 593,
      "Ġgu": 594,
      "Ġour": 595,
      "Ġevery": 596,
      "Ġonly": 597,
      "ub": 598,
      "Ġday": 599,
      "Ġlittle": 600,
      "Ġagain": 601,
      "Ġafter": 602,
      "ance": 603,
      "ave": 604,
      "ild": 605,
      "Ġsc": 606,
      "ved": 607,
      "Ġact": 608,
      "ff": 609,
      "Ġac": 610,
      "Ġbet": 611,
      "Ġsomet": 612,
      "Ġfl": 613,
      "Ġplay": 614,
      "urn": 615,
      "wn": 616,
      "amp": 617,
      "ty": 618,
      "Ġdis": 619,
      "Ġmay": 620,
      "Ġcomm": 621,
      "Ġbu": 622,
      "og": 623,
      "Ġbecause": 624,
      "Ġspe": 625,
      "ren": 626,
      "Ġlet": 627,
      "Ġthese": 628,
      "ord": 629,
      "Ġneed": 630,
      "Ġcont": 631,
      "ang": 632,
      "this": 633,
      "ress": 634,
      "Ġtake": 635,
      "Ġmu": 636,
      "able": 637,
      "ence": 638,
      "ile": 639,
      "Ġmake": 640,
      "self": 641,
      "my": 642,
      ".\"": 643,
      "Ġpre": 644,
      "au": 645,
      "fore": 646,
      "get": 647,
      "Ġsha": 648,
      "ory": 649,
      "Ġreally": 650,
      "pl": 651,
      "Ġper": 652,
      "Ġwr": 653,
      "Ġshould": 654,
      "Ġser": 655,
      "Ġcar": 656,
      "ru": 657,
      "they": 658,
      "Ġfo": 659,
      "Ġapp": 660,
      "ft": 661,
      "thing": 662,
      "les": 663,
      "iss": 664,
      "ical": 665,
      "Ġunder": 666,
      "Ġtell": 667,
      "there": 668,
      "Ġhapp": 669,
      "ens": 670,
      "Ġthr": 671,
      "ied": 672,
      "come": 673,
      "ict": 674,
      "ather": 675,
      "sh": 676,
      "Ġput": 677,
      "ign": 678,
      "Ġer": 679,
      "ult": 680,
      "do": 681,
      "Ġdoes": 682,
      "let": 683,
      "Ġmuch": 684,
      "Ġ201": 685,
      "ving": 686,
      "Ġtoo": 687,
      "onna": 688,
      "Ġmean": 689,
      "land": 690,
      "she": 691,
      "Ġcount": 692,
      "uck": 693,
      "Ġsomething": 694,
      "int": 695,
      "Ġres": 696,
      "ates": 697,
      "ool": 698,
      "ail": 699,
      "Ġsm": 700,
      "Ġgonna": 701,
      "Ġlong": 702,
      "Ġits": 703,
      "Ġmade": 704,
      "Ġeven": 705,
      "ect": 706,
      "Ġcr": 707,
      "ys": 708,
      "ons": 709,
      "'d": 710,
      "Ġjo": 711,
      "end": 712,
      "how": 713,
      "ath": 714,
      "Ġtalk": 715,
      "Ġbefore": 716,
      "ody": 717,
      "Ġnever": 718,
      "Ġ''": 719,
      "``": 720,
      "ious": 721,
      "Ġrec": 722,
      "Ġgreat": 723,
      "ĠâĢ": 724,
      "Ġmany": 725,
      "iver": 726,
      "ited": 727,
      "Ġimp": 728,
      "ady": 729,
      "mm": 730,
      "Ġsec": 731,
      "ull": 732,
      "Ġdidn": 733,
      "Ġchan": 734,
      "man": 735,
      "Ġrem": 736,
      "Ġmost": 737,
      "day": 738,
      "ks": 739,
      "du": 740,
      "ually": 741,
      "ily": 742,
      "Ġnor": 743,
      "ting": 744,
      "Ġbel": 745,
      "Ġmin": 746,
      "ouse": 747,
      "okay": 748,
      "Ġhand": 749,
      "right": 750,
      "Ġhel": 751,
      "Ġlife": 752,
      "ition": 753,
      "uh": 754,
      "ps": 755,
      "Ġ3": 756,
      "tain": 757,
      "where": 758,
      "ors": 759,
      "Ġdif": 760,
      "ations": 761,
      "ward": 762,
      "Ġyears": 763,
      "Ġho": 764,
      "Ġthrough": 765,
      "ix": 766,
      "Ġdr": 767,
      "igh": 768,
      "Ġke": 769,
      "Ġold": 770,
      "Ġworld": 771,
      "aw": 772,
      "ise": 773,
      "not": 774,
      "Ġhar": 775,
      "rent": 776,
      "âĢĿ": 777,
      "Ġcour": 778,
      "ful": 779,
      "Ġstill": 780,
      "ces": 781,
      "Ġthree": 782,
      "ction": 783,
      "Ġdes": 784,
      "ried": 785,
      "Ġthought": 786,
      "Ġthing": 787,
      "Ġ200": 788,
      "ial": 789,
      "Ġthose": 790,
      "Ġthings": 791,
      "cess": 792,
      "Ġlove": 793,
      "llow": 794,
      "ves": 795,
      "Ġph": 796,
      "Ġpres": 797,
      "li": 798,
      "aking": 799,
      "Ġfound": 800,
      "ince": 801,
      "gin": 802,
      "Ġsch": 803,
      "Ġshow": 804,
      "Ġstart": 805,
      "Ġwent": 806,
      "che": 807,
      "Ġma": 808,
      "Ġaway": 809,
      "Ġcame": 810,
      "der": 811,
      "Ġhome": 812,
      "Ġmust": 813,
      "Ġlast": 814,
      "Ġused": 815,
      "Ġcalled": 816,
      "oney": 817,
      "Ġrep": 818,
      "oss": 819,
      "Ġear": 820,
      "oth": 821,
      "Ġfind": 822,
      "Ġask": 823,
      "Ġdoing": 824,
      "Ġind": 825,
      "vel": 826,
      "tern": 827,
      "gr": 828,
      "Ġwhy": 829,
      "eric": 830,
      "ents": 831,
      "Ġform": 832,
      "Ġend": 833,
      "Ġpol": 834,
      "Ġche": 835,
      "riend": 836,
      "Ġ!": 837,
      "imes": 838,
      "up": 839,
      "xt": 840,
      "Ġmat": 841,
      "Ġgive": 842,
      "Ġwar": 843,
      "Ġhelp": 844,
      "ark": 845,
      "\".": 846,
      "Ġbeing": 847,
      "Ġok": 848,
      "why": 849,
      "ced": 850,
      "ple": 851,
      "Ġsuch": 852,
      "Ġown": 853,
      "Ġfam": 854,
      "gan": 855,
      "form": 856,
      "ened": 857,
      "Ġnight": 858,
      "mo": 859,
      "Ġsy": 860,
      "Ġmon": 861,
      "Ġhouse": 862,
      "any": 863,
      "Ġname": 864,
      "Ġmr": 865,
      "Ġcity": 866,
      "Ġwom": 867,
      "Ġbig": 868,
      "lic": 869,
      "irl": 870,
      "Ġfin": 871,
      "Ġeng": 872,
      "Ġsame": 873,
      "Ġreg": 874,
      "als": 875,
      "Ġyeah": 876,
      "Ġchar": 877,
      "ng": 878,
      "don": 879,
      "Ġkind": 880,
      "ib": 881,
      "Ġlot": 882,
      "ways": 883,
      "ait": 884,
      "lo": 885,
      "ever": 886,
      "ying": 887,
      "Ġop": 888,
      "Ġdiffe": 889,
      "Ġwon": 890,
      "Ġchild": 891,
      "Ġel": 892,
      "Ġgen": 893,
      "air": 894,
      "Ġcare": 895,
      "Ġhead": 896,
      "Ġatt": 897,
      "ning": 898,
      "body": 899,
      "Ġsupp": 900,
      "Ġplace": 901,
      "Ġpers": 902,
      "Ġcons": 903,
      "Ġnum": 904,
      "Ġameric": 905,
      "Ġstr": 906,
      "co": 907,
      "Ġyes": 908,
      "Ġkill": 909,
      "Ġgod": 910,
      "Ġfeel": 911,
      "com": 912,
      "Ġschool": 913,
      "Ġcent": 914,
      "Ġcap": 915,
      "Ġ18": 916,
      "Ġmight": 917,
      "Ġsl": 918,
      "Ġdist": 919,
      "rest": 920,
      "ased": 921,
      "Ġrel": 922,
      "outh": 923,
      "Ġfriend": 924,
      "Ġturn": 925,
      "me": 926,
      "ational": 927,
      "Ġanother": 928,
      "Ġuse": 929,
      "Ġaround": 930,
      "ts": 931,
      "ating": 932,
      "Ġset": 933,
      "uring": 934,
      "br": 935,
      ").": 936,
      "ember": 937,
      "ss": 938,
      "Ġmom": 939,
      "Ġ4": 940,
      "mber": 941,
      "go": 942,
      "Ġele": 943,
      "\",": 944,
      "io": 945,
      "Ġmus": 946,
      "Ġsure": 947,
      "Ġz": 948,
      "gg": 949,
      "ower": 950,
      "ute": 951,
      "Ġfour": 952,
      "Ġev": 953,
      "Ġalways": 954,
      "Ġgirl": 955,
      "led": 956,
      "ton": 957,
      "Ġsur": 958,
      "Ġed": 959,
      "Ġstates": 960,
      "Ġple": 961,
      "),": 962,
      "look": 963,
      "pect": 964,
      "mb": 965,
      "Ġking": 966,
      "ween": 967,
      "than": 968,
      "Ġmoney": 969,
      "ank": 970,
      "Ġyear": 971,
      "Ġleft": 972,
      "âĻ": 973,
      "Ġmet": 974,
      "Ġunited": 975,
      "Ġsw": 976,
      "aught": 977,
      "Ġokay": 978,
      "Ġbetter": 979,
      "clud": 980,
      "Ġreal": 981,
      "atch": 982,
      "Ġanything": 983,
      "who": 984,
      "az": 985,
      "Ġkeep": 986,
      "Ġent": 987,
      "Ġinv": 988,
      "ular": 989,
      "ĠâĢľ": 990,
      "Ġsecond": 991,
      "orry": 992,
      "Ġoh": 993,
      "Ġwhile": 994,
      "Ġrun": 995,
      "ible": 996,
      "ĠĠĠĠ": 997,
      "ics": 998,
      "Ġhigh": 999,
      "Ġinst": 1000,
      "ness": 1001,
      "Ġbelie": 1002,
      "ten": 1003,
      "Ġbit": 1004,
      "Ġfar": 1005,
      "Ġdifferent": 1006,
      "Ġbetween": 1007,
      "Ġdone": 1008,
      "Ġcle": 1009,
      "can": 1010,
      "when": 1011,
      "ident": 1012,
      "Ġtold": 1013,
      "Ġinte": 1014,
      "âĻª": 1015,
      "fect": 1016,
      "Ġword": 1017,
      "hey": 1018,
      "Ġ5": 1019,
      "ters": 1020,
      "Ġbus": 1021,
      "Ġstate": 1022,
      "Ġstud": 1023,
      "Ġpoint": 1024,
      "Ġins": 1025,
      "ird": 1026,
      "Ġ|": 1027,
      "Ġca": 1028,
      "Ġmen": 1029,
      "Ġever": 1030,
      "cial": 1031,
      ",\"": 1032,
      "Ġpop": 1033,
      "ual": 1034,
      "Ġknown": 1035,
      "Ġsub": 1036,
      "Ġperson": 1037,
      "Ġwater": 1038,
      "Ġsing": 1039,
      "ames": 1040,
      "Ġbook": 1041,
      "here": 1042,
      "Ġob": 1043,
      "just": 1044,
      "ason": 1045,
      "Ġcol": 1046,
      "Ġuh": 1047,
      "ished": 1048,
      "Ġbest": 1049,
      "Ġbre": 1050,
      "Ġret": 1051,
      "akes": 1052,
      "har": 1053,
      "ject": 1054,
      "ph": 1055,
      "Ġass": 1056,
      "its": 1057,
      "Ġgl": 1058,
      "Ġboth": 1059,
      "Ġunt": 1060,
      "ug": 1061,
      "Ġtook": 1062,
      "cy": 1063,
      "Ġcoll": 1064,
      "Ġstop": 1065,
      "by": 1066,
      "ms": 1067,
      "Ġfather": 1068,
      "Ġdec": 1069,
      "Ġpar": 1070,
      "ins": 1071,
      "ivers": 1072,
      "Ġerm": 1073,
      "Ġ199": 1074,
      "ling": 1075,
      "con": 1076,
      "Ġnext": 1077,
      "Ġinclud": 1078,
      "cer": 1079,
      "Ġ;": 1080,
      "ner": 1081,
      "Ġeach": 1082,
      "Ġfollow": 1083,
      "âĢĻ": 1084,
      "ric": 1085,
      "Ġnothing": 1086,
      "ities": 1087,
      "ative": 1088,
      "ork": 1089,
      "cept": 1090,
      "ohn": 1091,
      "Ġlater": 1092,
      "Ġmiss": 1093,
      "stand": 1094,
      "Ġcourse": 1095,
      "of": 1096,
      "und": 1097,
      "olog": 1098,
      "ger": 1099,
      "Ġgre": 1100,
      "oun": 1101,
      "ash": 1102,
      "vie": 1103,
      "Ġprodu": 1104,
      "Ġpass": 1105,
      "Ġsim": 1106,
      "Ġmother": 1107,
      "Ġwee": 1108,
      "row": 1109,
      "Ġsir": 1110,
      "ret": 1111,
      "Ġlar": 1112,
      "Ġsaw": 1113,
      "une": 1114,
      "Ġlight": 1115,
      "Ġuntil": 1116,
      "Ġmed": 1117,
      "ross": 1118,
      "ctor": 1119,
      "vern": 1120,
      "Ġseem": 1121,
      "Ġadd": 1122,
      "Ġnumber": 1123,
      "then": 1124,
      "Ġsmall": 1125,
      "bo": 1126,
      "gether": 1127,
      "ared": 1128,
      "Ġ-": 1129,
      "ision": 1130,
      "Ġacc": 1131,
      "new": 1132,
      "Ġlist": 1133,
      "Ġactually": 1134,
      "ures": 1135,
      "Ġgener": 1136,
      "ream": 1137,
      "ock": 1138,
      "Ġfun": 1139,
      "ale": 1140,
      "ope": 1141,
      "Ġboy": 1142,
      "ife": 1143,
      "Ġdep": 1144,
      "Ġduring": 1145,
      "Ġonce": 1146,
      "Ġyoung": 1147,
      "Ġste": 1148,
      "Ġfamily": 1149,
      "Ġdoesn": 1150,
      "ier": 1151,
      "osed": 1152,
      "af": 1153,
      "Ġsince": 1154,
      "Ġide": 1155,
      "came": 1156,
      "iet": 1157,
      "less": 1158,
      "ired": 1159,
      "ron": 1160,
      "Ġwait": 1161,
      "did": 1162,
      "Ġwanted": 1163,
      "ny": 1164,
      "Ġinter": 1165,
      "Ġsouth": 1166,
      "Ġelse": 1167,
      "vers": 1168,
      "Ġroom": 1169,
      "Ġpub": 1170,
      "Ġagainst": 1171,
      "19": 1172,
      "Ġnorth": 1173,
      "Ġhard": 1174,
      "ane": 1175,
      "Ġstand": 1176,
      "Ġamerican": 1177,
      "uth": 1178,
      "ged": 1179,
      "mer": 1180,
      "ific": 1181,
      "Ġdire": 1182,
      "Ġenough": 1183,
      "Ġmain": 1184,
      "Ġtogether": 1185,
      "Ġgovern": 1186,
      "ote": 1187,
      "Ġart": 1188,
      "Ġfact": 1189,
      "Ġbad": 1190,
      "Ġproble": 1191,
      "Ġair": 1192,
      "Ġ6": 1193,
      "ably": 1194,
      "Ġopen": 1195,
      "Ġap": 1196,
      "uc": 1197,
      "Ġhum": 1198,
      "Ġloc": 1199,
      "Ġtri": 1200,
      "Ġeverything": 1201,
      "Ġbecame": 1202,
      "ned": 1203,
      "Ġ--": 1204,
      "Ġbro": 1205,
      "Ġseen": 1206,
      "Ġla": 1207,
      "Ġlive": 1208,
      "ott": 1209,
      "Ġbar": 1210,
      "Ġson": 1211,
      "son": 1212,
      "Ġcur": 1213,
      "Ġmil": 1214,
      "ung": 1215,
      "Ġfew": 1216,
      "rist": 1217,
      "ines": 1218,
      "Ġtown": 1219,
      "Ġsorry": 1220,
      "Ġpri": 1221,
      "Ġwithout": 1222,
      "Ġmind": 1223,
      "Ġmusic": 1224,
      "Ġrest": 1225,
      "Ġside": 1226,
      "llo": 1227,
      "Ġunivers": 1228,
      "good": 1229,
      "Ġsk": 1230,
      "Ġmeet": 1231,
      "Ġsix": 1232,
      "fl": 1233,
      "Ġsays": 1234,
      "ister": 1235,
      "Ġstay": 1236,
      "hes": 1237,
      "Ġeas": 1238,
      "Ġfive": 1239,
      "Ġland": 1240,
      "Ġteam": 1241,
      "Ġread": 1242,
      "Ġtimes": 1243,
      "Ġfil": 1244,
      "Ġgrou": 1245,
      "iness": 1246,
      "pr": 1247,
      "Ġtrans": 1248,
      "Ġquite": 1249,
      "Ġprov": 1250,
      "Ġsign": 1251,
      "ury": 1252,
      "Ġtoday": 1253,
      "Ġhear": 1254,
      "Ġimport": 1255,
      "ready": 1256,
      "Ġexp": 1257,
      "ism": 1258,
      "Ġjohn": 1259,
      "Ġdri": 1260,
      "Ġdied": 1261,
      "att": 1262,
      "Ġchildren": 1263,
      "Ġkid": 1264,
      "ina": 1265,
      "most": 1266,
      "Ġplease": 1267,
      "Ġcoming": 1268,
      "orning": 1269,
      "thank": 1270,
      "Ġ198": 1271,
      "Ġleave": 1272,
      "Ġcal": 1273,
      "Ġlooking": 1274,
      "su": 1275,
      "Ġquest": 1276,
      "Ġthough": 1277,
      "app": 1278,
      "ised": 1279,
      "sel": 1280,
      "ution": 1281,
      "ral": 1282,
      "Ġemp": 1283,
      "Ġunderstand": 1284,
      "Ġface": 1285,
      "ertain": 1286,
      "Ġsit": 1287,
      "Ġlaw": 1288,
      "Ġbelieve": 1289,
      "ital": 1290,
      "Ġmove": 1291,
      "Ġcor": 1292,
      "Ġhappened": 1293,
      "Ġnice": 1294,
      "Ġbuild": 1295,
      "ho": 1296,
      "Ġdays": 1297,
      "Ġline": 1298,
      "Ġjob": 1299,
      "ball": 1300,
      "Ġwalk": 1301,
      "ta": 1302,
      "ex": 1303,
      "Ġwhole": 1304,
      "Ġsle": 1305,
      "ither": 1306,
      "rew": 1307,
      "ange": 1308,
      "ments": 1309,
      "Ġge": 1310,
      "stem": 1311,
      "Ġmill": 1312,
      "Ġcounty": 1313,
      "uff": 1314,
      "Ġwoman": 1315,
      "Ġdeath": 1316,
      "Ġcountry": 1317,
      "Ġbas": 1318,
      "Ġisn": 1319,
      "Ġgetting": 1320,
      "Ġpower": 1321,
      "Ġgame": 1322,
      "ont": 1323,
      "Ġbab": 1324,
      "Ġrele": 1325,
      "Ġinc": 1326,
      "Ġdad": 1327,
      "Ġinterest": 1328,
      "Ġnear": 1329,
      "Ġyet": 1330,
      "Ġfore": 1331,
      "Ġmorning": 1332,
      "cc": 1333,
      "Ġheard": 1334,
      "ield": 1335,
      "ense": 1336,
      "Ġrecord": 1337,
      "Ġnat": 1338,
      "Ġposs": 1339,
      "000": 1340,
      "Ġce": 1341,
      "ists": 1342,
      "Ġwin": 1343,
      "Ġlead": 1344,
      "Ġpat": 1345,
      "Ġappe": 1346,
      "ants": 1347,
      "aut": 1348,
      "cted": 1349,
      "Ġplan": 1350,
      "ized": 1351,
      "Ġheart": 1352,
      "Ġsort": 1353,
      "anna": 1354,
      "dy": 1355,
      "vent": 1356,
      "Ġeyes": 1357,
      "Ġes": 1358,
      "Ġhold": 1359,
      "Ġhist": 1360,
      "Ġtry": 1361,
      "Ġsong": 1362,
      "Ġhimself": 1363,
      "Ġserv": 1364,
      "Ġfoot": 1365,
      "fr": 1366,
      "Ġgave": 1367,
      "ets": 1368,
      "ene": 1369,
      "Ġ197": 1370,
      "Ġhaving": 1371,
      "ma": 1372,
      "lish": 1373,
      "Ġdead": 1374,
      "aster": 1375,
      "Ġwind": 1376,
      "aughter": 1377,
      "your": 1378,
      "Ġsystem": 1379,
      "ize": 1380,
      "Ġgi": 1381,
      "cle": 1382,
      "Ġeat": 1383,
      "ik": 1384,
      "uss": 1385,
      "Ġimportant": 1386,
      "ined": 1387,
      "Ġcase": 1388,
      "Ġpay": 1389,
      "Ġoffic": 1390,
      "Ġhour": 1391,
      "Ġsoon": 1392,
      "Ġalready": 1393,
      "ted": 1394,
      "Ġans": 1395,
      "Ġ7": 1396,
      "Ġhalf": 1397,
      "mor": 1398,
      "Ġguy": 1399,
      "like": 1400,
      "Ġbrother": 1401,
      "Ġgerm": 1402,
      "Ġknew": 1403,
      "Ġswe": 1404,
      "Ġasked": 1405,
      "Ġty": 1406,
      "Ġuniversity": 1407,
      "Ġ8": 1408,
      "Ġwrong": 1409,
      "Ġhur": 1410,
      "tr": 1411,
      "?\"": 1412,
      "Ġnational": 1413,
      "Ġill": 1414,
      "Ġupon": 1415,
      "20": 1416,
      "Ġblack": 1417,
      "with": 1418,
      "Ġremember": 1419,
      "Ġborn": 1420,
      "wards": 1421,
      "ison": 1422,
      "gt": 1423,
      "Ġsaying": 1424,
      "Ġpa": 1425,
      "Ġfull": 1426,
      "ster": 1427,
      "Ġprob": 1428,
      "Ġwomen": 1429,
      "velop": 1430,
      "ives": 1431,
      "Ġvo": 1432,
      ".âĢĿ": 1433,
      "Ġtalking": 1434,
      "Ġ10": 1435,
      "Ġmaj": 1436,
      "wer": 1437,
      "ched": 1438,
      "Ġmeans": 1439,
      "Ġorder": 1440,
      "Ġchrist": 1441,
      "Ġmonth": 1442,
      "Ġref": 1443,
      "Ġround": 1444,
      "Ġdoor": 1445,
      "Ġconst": 1446,
      "Ġbegan": 1447,
      "Ġreturn": 1448,
      "Ġdiv": 1449,
      "Ġpresident": 1450,
      "Ġta": 1451,
      "Ġpret": 1452,
      "âĢĵ": 1453,
      "because": 1454,
      "Ġprof": 1455,
      "Ġtrying": 1456,
      "Ġdet": 1457,
      "Ġstarted": 1458,
      "arch": 1459,
      "ows": 1460,
      "Ġcontin": 1461,
      "Ġequ": 1462,
      "ains": 1463,
      "Ġ_": 1464,
      "Ġconf": 1465,
      "Ġparty": 1466,
      "may": 1467,
      "ically": 1468,
      "ural": 1469,
      "Ġalong": 1470,
      "ages": 1471,
      "den": 1472,
      "Ġsqu": 1473,
      "Ġfight": 1474,
      "Ġoften": 1475,
      "Ġbring": 1476,
      "Ġori": 1477,
      "mon": 1478,
      "Ġprom": 1479,
      "Ġwhite": 1480,
      "ided": 1481,
      "Ġra": 1482,
      "Ġshall": 1483,
      "Ġclass": 1484,
      "rop": 1485,
      "Ġsound": 1486,
      "side": 1487,
      "Ġcertain": 1488,
      "Ġtop": 1489,
      "Ġexpl": 1490,
      "Ġcommun": 1491,
      "Ġ9": 1492,
      "Ġhon": 1493,
      "Ġfall": 1494,
      "Ġmark": 1495,
      "Ġhowever": 1496,
      "Ġwife": 1497,
      "Ġfuck": 1498,
      "Ġidea": 1499,
      "la": 1500,
      "ches": 1501,
      "cent": 1502,
      "ility": 1503,
      "Ġprot": 1504,
      "Ġgone": 1505,
      "some": 1506,
      "Ġred": 1507,
      "Ġstory": 1508,
      "Ġdevelop": 1509,
      "Ġpet": 1510,
      "Ġleg": 1511,
      "Ġchange": 1512,
      "Ġdef": 1513,
      "see": 1514,
      "Ġlear": 1515,
      "Ġ196": 1516,
      "Ġmid": 1517,
      "rict": 1518,
      "Ġbed": 1519,
      "ately": 1520,
      "Ġpretty": 1521,
      "ney": 1522,
      "Ġhappen": 1523,
      "Ġhor": 1524,
      "Ġsent": 1525,
      "Ġarea": 1526,
      "ered": 1527,
      "Ġgroup": 1528,
      "cha": 1529,
      "rap": 1530,
      "Ġhat": 1531,
      "Ġmatter": 1532,
      "amed": 1533,
      "Ġcreat": 1534,
      "Ġless": 1535,
      "Ġplayed": 1536,
      "Ġpur": 1537,
      "Ġter": 1538,
      "ator": 1539,
      "ering": 1540,
      "ats": 1541,
      "ured": 1542,
      "lt": 1543,
      "ional": 1544,
      "âĢľ": 1545,
      "Ġ15": 1546,
      "aken": 1547,
      "Ġbusiness": 1548,
      "Ġgoes": 1549,
      "Ġshort": 1550,
      "Ġx": 1551,
      "Ġju": 1552,
      "Ġgovernment": 1553,
      "uro": 1554,
      "Ġable": 1555,
      "tend": 1556,
      "ides": 1557,
      "Ġint": 1558,
      "Ġje": 1559,
      "Ġstre": 1560,
      "Ġcompany": 1561,
      "iter": 1562,
      "ump": 1563,
      "raw": 1564,
      "Ġlost": 1565,
      "Ġsomeone": 1566,
      "Ġsleep": 1567,
      "Ġwatch": 1568,
      "Ġext": 1569,
      "jo": 1570,
      "Ġ[": 1571,
      "iam": 1572,
      "Ġmoment": 1573,
      "Ġisland": 1574,
      "ush": 1575,
      "pend": 1576,
      "Ġanim": 1577,
      "Ġ17": 1578,
      "rence": 1579,
      "Ġproblem": 1580,
      "Ġten": 1581,
      "ler": 1582,
      "Ġsho": 1583,
      "Ġ...": 1584,
      "hm": 1585,
      "Ġwanna": 1586,
      "een": 1587,
      "Ġpap": 1588,
      "Ġnews": 1589,
      "Ġterm": 1590,
      "pped": 1591,
      "Ġwond": 1592,
      "gy": 1593,
      "ship": 1594,
      "eng": 1595,
      "Ġpolit": 1596,
      "Ġsat": 1597,
      "apan": 1598,
      "Ġmaking": 1599,
      "Ġship": 1600,
      "Ġwasn": 1601,
      "Ġbeaut": 1602,
      "alth": 1603,
      "Ġpain": 1604,
      "Ġfine": 1605,
      "ices": 1606,
      "Ġpartic": 1607,
      "Ġbur": 1608,
      "port": 1609,
      "ilt": 1610,
      "ls": 1611,
      "Ġem": 1612,
      "Ġlarge": 1613,
      "ries": 1614,
      "anu": 1615,
      "Ġexamp": 1616,
      "Ġpresent": 1617,
      "Ġguys": 1618,
      "Ġcontro": 1619,
      "Ġtrue": 1620,
      "Ġprobably": 1621,
      "ze": 1622,
      "Ġweek": 1623,
      "ention": 1624,
      "Ġsou": 1625,
      "ained": 1626,
      "Ġexper": 1627,
      "Ġsuc": 1628,
      "Ġage": 1629,
      "Ġcomes": 1630,
      "Ġdrink": 1631,
      "oc": 1632,
      "aces": 1633,
      "cri": 1634,
      "Ġve": 1635,
      "Ġsum": 1636,
      "Ġyourself": 1637,
      "ley": 1638,
      "Ġtre": 1639,
      "ama": 1640,
      "Ġdel": 1641,
      "Ġfree": 1642,
      "Ġenglish": 1643,
      "Ġoper": 1644,
      "Ġthank": 1645,
      "Ġval": 1646,
      "!\"": 1647,
      "Ġpie": 1648,
      "Ġcut": 1649,
      "Ġgold": 1650,
      "huh": 1651,
      "have": 1652,
      "ians": 1653,
      "Ġvis": 1654,
      "Ġbaby": 1655,
      "Ġadv": 1656,
      "ues": 1657,
      "Ġdou": 1658,
      "Ġorigin": 1659,
      "Ġhot": 1660,
      "Ġfire": 1661,
      "Ġworking": 1662,
      "hy": 1663,
      "Ġhands": 1664,
      "Ġblood": 1665,
      "Ġhaven": 1666,
      "used": 1667,
      "Ġlooked": 1668,
      "ient": 1669,
      "Ġvar": 1670,
      "Ġwest": 1671,
      "ges": 1672,
      "Ġsal": 1673,
      "Ġim": 1674,
      "every": 1675,
      "Ġalmost": 1676,
      "Ġbody": 1677,
      "angu": 1678,
      "Ġbecome": 1679,
      "Ġstation": 1680,
      "ulation": 1681,
      "chan": 1682,
      "Ġdan": 1683,
      "Ġearly": 1684,
      "Ġhope": 1685,
      "Ġbrit": 1686,
      "Ġfilm": 1687,
      "Ġdistrict": 1688,
      "Ġdeal": 1689,
      "Ġago": 1690,
      "Ġwouldn": 1691,
      "Ġpublic": 1692,
      "Ġid": 1693,
      "Ġpos": 1694,
      "Ġrom": 1695,
      "gram": 1696,
      "Ġready": 1697,
      "Ġrock": 1698,
      "hip": 1699,
      "Ġinde": 1700,
      "Ġmovie": 1701,
      "Ġjapan": 1702,
      "Ġadm": 1703,
      "Ġroad": 1704,
      "Ġsci": 1705,
      "Ġchur": 1706,
      "Ġocc": 1707,
      "men": 1708,
      "Ġsol": 1709,
      "Ġmag": 1710,
      "Ġball": 1711,
      "Ġmaybe": 1712,
      "Ġyork": 1713,
      "ĠâĢĵ": 1714,
      "Ġpick": 1715,
      "ots": 1716,
      "arent": 1717,
      "Ġgeneral": 1718,
      "Ġmer": 1719,
      "hind": 1720,
      "Ġopp": 1721,
      "Ġeight": 1722,
      "Ġ194": 1723,
      "Ġdisc": 1724,
      "ino": 1725,
      "Ġfood": 1726,
      "Ġintern": 1727,
      "Ġtele": 1728,
      "Ġgiven": 1729,
      "enty": 1730,
      "Ġfrance": 1731,
      "his": 1732,
      "Ġbreak": 1733,
      "please": 1734,
      "Ġclear": 1735,
      "Ġlate": 1736,
      "Ġalb": 1737,
      "veral": 1738,
      "Ġspec": 1739,
      "ham": 1740,
      "Ġest": 1741,
      "Ġfriends": 1742,
      "anuary": 1743,
      "Ġquestion": 1744,
      "ief": 1745,
      "par": 1746,
      "Ġbegin": 1747,
      "Ġton": 1748,
      "Ġstuff": 1749,
      "Ġmur": 1750,
      "Ġmyself": 1751,
      "Ġaw": 1752,
      "born": 1753,
      "got": 1754,
      "Ġclose": 1755,
      "Ġspeak": 1756,
      "ety": 1757,
      "mr": 1758,
      "ards": 1759,
      "Ġdev": 1760,
      "Ġorgan": 1761,
      "Ġav": 1762,
      "Ġreleased": 1763,
      "Ġgrand": 1764,
      "Ġrece": 1765,
      "Ġbrought": 1766,
      "Ġdog": 1767,
      "Ġmic": 1768,
      "Ġmarch": 1769,
      "Ġsun": 1770,
      "Ġcomple": 1771,
      "Âł": 1772,
      "ese": 1773,
      "orm": 1774,
      "Ġkilled": 1775,
      "Ġpict": 1776,
      "Ġfront": 1777,
      "Ġpast": 1778,
      "inc": 1779,
      "Ġstar": 1780,
      "Ġ16": 1781,
      "Ġleast": 1782,
      "Ġport": 1783,
      "ns": 1784,
      "Ġsil": 1785,
      "Ġlangu": 1786,
      "head": 1787,
      "Ġprogram": 1788,
      "Ġdaughter": 1789,
      "Ġhuman": 1790,
      "Ġfre": 1791,
      "Ġseries": 1792,
      "Ġcourt": 1793,
      "Ġwords": 1794,
      "iful": 1795,
      "Ġjanuary": 1796,
      "Ġseveral": 1797,
      "Ġhappy": 1798,
      "Ġ``": 1799,
      "ived": 1800,
      "ii": 1801,
      "Ġtaken": 1802,
      "Ġreason": 1803,
      "selves": 1804,
      "haps": 1805,
      "Ġ12": 1806,
      "Ġcolle": 1807,
      "ring": 1808,
      "Ġguess": 1809,
      "was": 1810,
      "Ġexample": 1811,
      "Ġann": 1812,
      "sc": 1813,
      "Ġbehind": 1814,
      "ude": 1815,
      "iously": 1816,
      "Ġcamp": 1817,
      "iting": 1818,
      "utes": 1819,
      "bed": 1820,
      "unt": 1821,
      "Ġband": 1822,
      "Ġtem": 1823,
      "Ġinform": 1824,
      "Ġdesign": 1825,
      "hi": 1826,
      "Ġcou": 1827,
      "lly": 1828,
      "Ġeuro": 1829,
      "Ġcommon": 1830,
      "artment": 1831,
      "ology": 1832,
      "Ġprofess": 1833,
      "ove": 1834,
      "Ġ195": 1835,
      "Ġmajor": 1836,
      "Ġhit": 1837,
      "Ġvir": 1838,
      "Ġreport": 1839,
      "bs": 1840,
      "Ġrad": 1841,
      "Ġmillion": 1842,
      "Ġsold": 1843,
      "Ġmarried": 1844,
      "augh": 1845,
      "Ġtaking": 1846,
      "ract": 1847,
      "Ġrather": 1848,
      "Ġjack": 1849,
      "Ġallow": 1850,
      "Ġmakes": 1851,
      "iqu": 1852,
      "aced": 1853,
      "Ġpen": 1854,
      "ality": 1855,
      "Ġcharac": 1856,
      "Ġchurch": 1857,
      "Ġaust": 1858,
      "Ġvill": 1859,
      "oud": 1860,
      "Ġriver": 1861,
      "ford": 1862,
      "Ġsometimes": 1863,
      "Ġalone": 1864,
      "Ġquick": 1865,
      "after": 1866,
      "Ġfig": 1867,
      "Ġdream": 1868,
      "undred": 1869,
      "ped": 1870,
      "Ġsupport": 1871,
      "fic": 1872,
      "Ġcost": 1873,
      "Ġbill": 1874,
      "Ġpark": 1875,
      "Ġeither": 1876,
      "rench": 1877,
      "Ġtrain": 1878,
      "Ġliving": 1879,
      "Ġhistory": 1880,
      ",âĢĿ": 1881,
      "Ġsea": 1882,
      "more": 1883,
      "Ġir": 1884,
      "Ġstrong": 1885,
      "oke": 1886,
      "tw": 1887,
      "itten": 1888,
      "ĠâĻª": 1889,
      "ser": 1890,
      "ium": 1891,
      "ience": 1892,
      "hello": 1893,
      "ones": 1894,
      "Ġattack": 1895,
      "ency": 1896,
      "osp": 1897,
      "Ġturned": 1898,
      "band": 1899,
      "ament": 1900,
      "Ġothers": 1901,
      "Ġfa": 1902,
      "Ġcir": 1903,
      "atic": 1904,
      "bl": 1905,
      "Ġ&": 1906,
      "full": 1907,
      "Ġspecial": 1908,
      "pro": 1909,
      "Ġtest": 1910,
      "Ġsuccess": 1911,
      "Ġtou": 1912,
      "Ġearth": 1913,
      "Ġmess": 1914,
      "umb": 1915,
      "Ġalbum": 1916,
      "Ġpal": 1917,
      "which": 1918,
      "Ġlisten": 1919,
      "Ġthird": 1920,
      "Ġcop": 1921,
      "Ġthinking": 1922,
      "dle": 1923,
      "Ġmad": 1924,
      "Ġresp": 1925,
      "Ġcoun": 1926,
      "Ġoffice": 1927,
      "lling": 1928,
      "Ġmount": 1929,
      "gu": 1930,
      "Ġhundred": 1931,
      "Ġcouldn": 1932,
      "Ġeurope": 1933,
      "ently": 1934,
      "Ġgrow": 1935,
      "mbers": 1936,
      "Ġ0": 1937,
      "idge": 1938,
      "ague": 1939,
      "Ġstreet": 1940,
      "elt": 1941,
      "Ġelect": 1942,
      "Ġmrs": 1943,
      "Ġcaptain": 1944,
      "Ġwall": 1945,
      "Ġtot": 1946,
      "ement": 1947,
      "Ġcheck": 1948,
      "fort": 1949,
      "Ġdie": 1950,
      "Ġstru": 1951,
      "maybe": 1952,
      "Ġlooks": 1953,
      "actly": 1954,
      "Ġfif": 1955,
      "Ġwithin": 1956,
      "Ġnamed": 1957,
      "Ġeast": 1958,
      "Ġbeautiful": 1959,
      "Ġlady": 1960,
      "cr": 1961,
      "ior": 1962,
      "bit": 1963,
      "Ġfur": 1964,
      "Ġdam": 1965,
      "ming": 1966,
      "itting": 1967,
      "mar": 1968,
      "Ġda": 1969,
      "ptember": 1970,
      "Ġusually": 1971,
      "dom": 1972,
      "Ġbritish": 1973,
      "ffect": 1974,
      "Ġheld": 1975,
      "Ġbuilding": 1976,
      "Ġgun": 1977,
      "Ġwonder": 1978,
      "Ġcross": 1979,
      "Ġ$": 1980,
      "eth": 1981,
      "ril": 1982,
      "bert": 1983,
      "Ġpoor": 1984,
      "Ġfair": 1985,
      "Ġstep": 1986,
      "Ġwants": 1987,
      "Ġinside": 1988,
      "thern": 1989,
      "Ġplaying": 1990,
      "Ġappro": 1991,
      "Ġservice": 1992,
      "Ġbri": 1993,
      "Ġexpect": 1994,
      "Ġcre": 1995,
      "Ġdear": 1996,
      "Ġamong": 1997,
      "Ġchamp": 1998,
      "Ġtrou": 1999,
      "ert": 2000,
      "ograp": 2001,
      "ider": 2002,
      "Ġbuilt": 2003,
      "read": 2004,
      "Ġminute": 2005,
      "ask": 2006,
      "Ġseason": 2007,
      "lished": 2008,
      "aged": 2009,
      "Ġvict": 2010,
      "Ġground": 2011,
      "Ġlay": 2012,
      "Ġleav": 2013,
      "key": 2014,
      "ead": 2015,
      "Ġsweet": 2016,
      "Ġresult": 2017,
      "ee": 2018,
      "Ġsuper": 2019,
      "orge": 2020,
      "sy": 2021,
      "Ġimm": 2022,
      "Ġfootball": 2023,
      "bru": 2024,
      "unk": 2025,
      "Ġru": 2026,
      "Ġteac": 2027,
      "fully": 2028,
      "med": 2029,
      "Ġbir": 2030,
      "estern": 2031,
      "Ġdece": 2032,
      "Ġrequ": 2033,
      "put": 2034,
      "vision": 2035,
      "sha": 2036,
      "ondon": 2037,
      "Ġacross": 2038,
      "Ġsingle": 2039,
      "Ġdark": 2040,
      "Ġminutes": 2041,
      "Ġfollowing": 2042,
      "Ġoutside": 2043,
      "Ġperform": 2044,
      "Ġmonths": 2045,
      "iving": 2046,
      "Ġgreen": 2047,
      "Ġcast": 2048,
      "po": 2049,
      "Ġfrench": 2050,
      "Ġusing": 2051,
      "Ġran": 2052,
      "Ġmembers": 2053,
      "Ġvide": 2054,
      "Ġhus": 2055,
      "Ġlocal": 2056,
      "ination": 2057,
      "Ġanswer": 2058,
      "work": 2059,
      "zy": 2060,
      "aring": 2061,
      "Ġjuly": 2062,
      "give": 2063,
      "Ġeffect": 2064,
      "Ġphil": 2065,
      "Ġpossible": 2066,
      "Ġconcer": 2067,
      "Ġhy": 2068,
      "Ġgotta": 2069,
      "Ġlab": 2070,
      "Ġsend": 2071,
      "ober": 2072,
      "Ġaug": 2073,
      "Ġdoctor": 2074,
      "ana": 2075,
      "Ġseptember": 2076,
      "ey": 2077,
      "take": 2078,
      "Ġhell": 2079,
      "Ġdest": 2080,
      "Ġcat": 2081,
      "Ġjud": 2082,
      "Ġwood": 2083,
      "Ġmot": 2084,
      "Ġpolice": 2085,
      "Ġbuy": 2086,
      "Ġbird": 2087,
      "Ġrepl": 2088,
      "Ġlord": 2089,
      "Ġseven": 2090,
      "ousand": 2091,
      "resent": 2092,
      "Ġincluding": 2093,
      "Ġoct": 2094,
      "ature": 2095,
      "morrow": 2096,
      "Ġabs": 2097,
      "Ġtried": 2098,
      "Ġcra": 2099,
      "Ġ193": 2100,
      "hel": 2101,
      "Ġlow": 2102,
      "anger": 2103,
      "Ġauth": 2104,
      "Ġcond": 2105,
      "Ġtech": 2106,
      "Ġhair": 2107,
      "aim": 2108,
      "Ġmember": 2109,
      "view": 2110,
      "ald": 2111,
      "Ġclub": 2112,
      "Ġtreat": 2113,
      "fer": 2114,
      "Ġexc": 2115,
      "Ġvie": 2116,
      "Ġ*": 2117,
      "Ġsn": 2118,
      "els": 2119,
      "will": 2120,
      "ached": 2121,
      "Ġ11": 2122,
      "lled": 2123,
      "attle": 2124,
      "Ġvoice": 2125,
      "Ġver": 2126,
      "Ġsecret": 2127,
      "Ġpopulation": 2128,
      "Ġlevel": 2129,
      "Ġfield": 2130,
      "Ġdepartment": 2131,
      "Ġjune": 2132,
      "ases": 2133,
      "Ġpress": 2134,
      "Ġmass": 2135,
      "Ġlived": 2136,
      "Ġmod": 2137,
      "Ġbox": 2138,
      "wait": 2139,
      "Ġcry": 2140,
      "ances": 2141,
      "unch": 2142,
      "Ġwritten": 2143,
      "gest": 2144,
      "||": 2145,
      "ified": 2146,
      "Ġanyone": 2147,
      "Ġchance": 2148,
      "gress": 2149,
      "Ġsus": 2150,
      "Ġlanguage": 2151,
      "Ġmor": 2152,
      "Ġthousand": 2153,
      "Ġview": 2154,
      "Î¿": 2155,
      "Ġfelt": 2156,
      "Ġprocess": 2157,
      "Ġflo": 2158,
      "Ġcollege": 2159,
      "Ġlondon": 2160,
      "vember": 2161,
      "soci": 2162,
      "Ġworry": 2163,
      "Ġworks": 2164,
      "Ġcentury": 2165,
      "ike": 2166,
      "Ġarmy": 2167,
      "Ġfell": 2168,
      "avy": 2169,
      "fo": 2170,
      "Ġtill": 2171,
      "Ġang": 2172,
      "Ġcold": 2173,
      "Ġaugust": 2174,
      "anc": 2175,
      "Ġtour": 2176,
      "Ġhill": 2177,
      "arr": 2178,
      "Ġblue": 2179,
      "Ġvi": 2180,
      "itions": 2181,
      "Ġgets": 2182,
      "Ġgames": 2183,
      "Ġtable": 2184,
      "ories": 2185,
      "Ġeveryone": 2186,
      "Ġhusband": 2187,
      "Ġformer": 2188,
      "bur": 2189,
      "iod": 2190,
      "por": 2191,
      "Ġboys": 2192,
      "Ġregion": 2193,
      "Ġlad": 2194,
      "Ġengland": 2195,
      "Ġinformation": 2196,
      "from": 2197,
      "Ġdefe": 2198,
      "Ġrail": 2199,
      "Ġprotect": 2200,
      "Ġhey": 2201,
      "Ġrob": 2202,
      "Ġapril": 2203,
      "Ġfav": 2204,
      "Ġ13": 2205,
      "Ġital": 2206,
      "ery": 2207,
      "Ġpost": 2208,
      "Ġeduc": 2209,
      "Ġcomplete": 2210,
      "Ġbased": 2211,
      "Ġhig": 2212,
      "Ġproper": 2213,
      "Ġworked": 2214,
      "Ġlives": 2215,
      "Ġparticular": 2216,
      "bruary": 2217,
      "spe": 2218,
      "Ġdin": 2219,
      "Ġevent": 2220,
      "ipp": 2221,
      "would": 2222,
      "Ġwhether": 2223,
      "Ġpull": 2224,
      "ell": 2225,
      "Ġeasy": 2226,
      "gen": 2227,
      "vered": 2228,
      "Ġ14": 2229,
      "Ġones": 2230,
      "Ġpract": 2231,
      "Ġhours": 2232,
      "Ġoctober": 2233,
      "aint": 2234,
      "ov": 2235,
      "itch": 2236,
      "Ġnet": 2237,
      "Ġcannot": 2238,
      "Ġtrad": 2239,
      "Ġtomorrow": 2240,
      "amb": 2241,
      "Ġcurrent": 2242,
      "Ġwish": 2243,
      "Ġmine": 2244,
      "Ġconne": 2245,
      "Ġwrote": 2246,
      "Ġtelevision": 2247,
      "Ġdecember": 2248,
      "....": 2249,
      "room": 2250,
      "Ġtwenty": 2251,
      "Ġinvol": 2252,
      "10": 2253,
      "bye": 2254,
      "cil": 2255,
      "Ġris": 2256,
      "Ġwrite": 2257,
      "Ġtechn": 2258,
      "Ġknows": 2259,
      "Ġpaper": 2260,
      "Ġclean": 2261,
      "asure": 2262,
      "Ġnovember": 2263,
      "tell": 2264,
      "Ġseems": 2265,
      "Ġgerman": 2266,
      "Ġpriv": 2267,
      "Ġcouple": 2268,
      "Ġtit": 2269,
      "Ġlim": 2270,
      "iding": 2271,
      "Ġdiffic": 2272,
      "yal": 2273,
      "Ġfast": 2274,
      "Ġstra": 2275,
      "airs": 2276,
      "Ġauthor": 2277,
      "Ġprop": 2278,
      "Ġperhaps": 2279,
      "Ġep": 2280,
      "raid": 2281,
      "ding": 2282,
      "Ġsense": 2283,
      "Ġcommand": 2284,
      "Ġ30": 2285,
      "eral": 2286,
      "ounds": 2287,
      "Ġrepresent": 2288,
      "Ġbirth": 2289,
      "Ġamerica": 2290,
      "Ġsoci": 2291,
      "yed": 2292,
      "Ġfeet": 2293,
      "Ġcompet": 2294,
      "Ġtur": 2295,
      "Ġcook": 2296,
      "ffic": 2297,
      "Ġ2013": 2298,
      "Ġphone": 2299,
      "Ġaward": 2300,
      "Ġcontrol": 2301,
      "Ġassoci": 2302,
      "Ġchanged": 2303,
      "ula": 2304,
      "cut": 2305,
      "Ġvers": 2306,
      "Ġtruth": 2307,
      "Ġcup": 2308,
      "Ġant": 2309,
      "hard": 2310,
      "ob": 2311,
      "Ġdress": 2312,
      "Ġexactly": 2313,
      "Ġmoved": 2314,
      "Ġfebruary": 2315,
      "car": 2316,
      "ida": 2317,
      "idence": 2318,
      "Ġparent": 2319,
      "Ġsen": 2320,
      "Ġsister": 2321,
      "itive": 2322,
      "Ġcult": 2323,
      "oose": 2324,
      "Ġlonger": 2325,
      "Ġinstead": 2326,
      "pre": 2327,
      "ival": 2328,
      "time": 2329,
      "ata": 2330,
      "Ġciv": 2331,
      "Ġperiod": 2332,
      "Ġtrave": 2333,
      "Ġvideo": 2334,
      "Ġfail": 2335,
      "though": 2336,
      "ken": 2337,
      "night": 2338,
      "irty": 2339,
      "ept": 2340,
      "Ġcos": 2341,
      "Ġsupposed": 2342,
      "Ġlie": 2343,
      "ille": 2344,
      "Ġdeep": 2345,
      "Ġindian": 2346,
      "Ġdraw": 2347,
      "ribut": 2348,
      "ublic": 2349,
      "erv": 2350,
      "Ġdi": 2351,
      "Ġbott": 2352,
      "ization": 2353,
      "sa": 2354,
      "Ġsex": 2355,
      "Ġrelig": 2356,
      "ky": 2357,
      "Ġspace": 2358,
      "ray": 2359,
      "ging": 2360,
      "kes": 2361,
      "ony": 2362,
      "Ġcommune": 2363,
      "Ġshot": 2364,
      "Ġkids": 2365,
      "Ġ202": 2366,
      "Ġcareer": 2367,
      "Ġdirect": 2368,
      "ef": 2369,
      "cum": 2370,
      "Ġfly": 2371,
      "cially": 2372,
      "Ġtrust": 2373,
      "hold": 2374,
      "Ġsud": 2375,
      "Ġafraid": 2376,
      "bers": 2377,
      "hael": 2378,
      "Ġvillage": 2379,
      "Ġrev": 2380,
      "ode": 2381,
      "Ġ2010": 2382,
      "18": 2383,
      "ien": 2384,
      "Ġhealth": 2385,
      "Ġhuh": 2386,
      "stop": 2387,
      "Ġproject": 2388,
      "Ġthemselves": 2389,
      "Ġcharacter": 2390,
      "Ġgirls": 2391,
      "Ġpicture": 2392,
      "Ġhurt": 2393,
      "Ġforce": 2394,
      "list": 2395,
      "line": 2396,
      "Ġeye": 2397,
      "Ġmiddle": 2398,
      "Ġdisco": 2399,
      "Ġsocial": 2400,
      "Ġletter": 2401,
      "conom": 2402,
      "Ġnin": 2403,
      "mal": 2404,
      "Ġtree": 2405,
      "Ġincre": 2406,
      "Ġdro": 2407,
      "entle": 2408,
      "Ġgar": 2409,
      "Ġbull": 2410,
      "Ġhorse": 2411,
      "Ġtonight": 2412,
      "hen": 2413,
      "Ġrunning": 2414,
      "ration": 2415,
      "ada": 2416,
      "Ġneeds": 2417,
      "Ġhen": 2418,
      "emy": 2419,
      "Ġtrouble": 2420,
      "uation": 2421,
      "Ġhosp": 2422,
      "Ġchair": 2423,
      "Ġkept": 2424,
      "Ġcollect": 2425,
      "wel": 2426,
      "Ġpopular": 2427,
      "ission": 2428,
      "Ġluck": 2429,
      "Ġric": 2430,
      "ffe": 2431,
      "Ġtype": 2432,
      "Ġdescri": 2433,
      "over": 2434,
      "ption": 2435,
      "Ġreceived": 2436,
      "Ġforget": 2437,
      "Ġwhatever": 2438,
      "Ġmaster": 2439,
      "Ġleague": 2440,
      "ording": 2441,
      "oof": 2442,
      "Ġvol": 2443,
      "Ġafric": 2444,
      "king": 2445,
      "Ġroman": 2446,
      "even": 2447,
      "these": 2448,
      "sp": 2449,
      "Ġfut": 2450,
      "ogn": 2451,
      "Ġvirgin": 2452,
      "ilar": 2453,
      "Ġshoot": 2454,
      "Ġtouch": 2455,
      "Ġbud": 2456,
      "Ġarri": 2457,
      "Ġengine": 2458,
      "Ġdue": 2459,
      "Ġlat": 2460,
      "Ġabove": 2461,
      "cing": 2462,
      "Ġcivil": 2463,
      "Ġpan": 2464,
      "Ġbroad": 2465,
      "yn": 2466,
      "ax": 2467,
      "dr": 2468,
      "Ġden": 2469,
      "Ġplayer": 2470,
      "Ġsett": 2471,
      "gre": 2472,
      "Ġaccept": 2473,
      "Ġnine": 2474,
      "ai": 2475,
      "lant": 2476,
      "somet": 2477,
      "Ġpot": 2478,
      "Ġcapital": 2479,
      "Ġtom": 2480,
      "Ġinfl": 2481,
      "Ġinternational": 2482,
      "Ġ25": 2483,
      "Ġperfect": 2484,
      "Ġshut": 2485,
      "Ġeverybody": 2486,
      "Ġsca": 2487,
      "thanks": 2488,
      "Ġinvest": 2489,
      "Ġcrit": 2490,
      "Ġentire": 2491,
      "urs": 2492,
      "Ġcomput": 2493,
      "Ġrul": 2494,
      "Ġmoder": 2495,
      "sorry": 2496,
      "Ġclot": 2497,
      "Ġcountries": 2498,
      "cture": 2499,
      "owers": 2500,
      "Ġdem": 2501,
      "Ġled": 2502,
      "Ġhop": 2503,
      "Ġwaiting": 2504,
      "ggest": 2505,
      "Ġcho": 2506,
      "Ġseemed": 2507,
      "light": 2508,
      "Ġspir": 2509,
      "Ġmal": 2510,
      "Ġrese": 2511,
      "Ġinclude": 2512,
      "Ġbal": 2513,
      "Ġhang": 2514,
      "Ġarm": 2515,
      "Ġbeat": 2516,
      "Ġcreated": 2517,
      "Ġsomebody": 2518,
      "two": 2519,
      "mhm": 2520,
      "Ġworth": 2521,
      "Ġpiece": 2522,
      "Ġexcept": 2523,
      "Ġunion": 2524,
      "Ġrespect": 2525,
      "ror": 2526,
      "uk": 2527,
      "avid": 2528,
      "Ġfucking": 2529,
      "olute": 2530,
      "Ġsummer": 2531,
      "gar": 2532,
      "Ġrain": 2533,
      "Ġaren": 2534,
      "Ġposition": 2535,
      "bt": 2536,
      "Ġdut": 2537,
      "Ġproduct": 2538,
      "Ġfurther": 2539,
      "Ġmist": 2540,
      "Ġitself": 2541,
      "Ġmult": 2542,
      "ays": 2543,
      "Ġfro": 2544,
      "Ġsudden": 2545,
      "Ġsan": 2546,
      "lls": 2547,
      "Ġeconom": 2548,
      "acy": 2549,
      "Ġphys": 2550,
      "Ġshit": 2551,
      "ference": 2552,
      "Ġstraight": 2553,
      "Ġstat": 2554,
      "Ġfamous": 2555,
      "Ġqueen": 2556,
      "Ġtakes": 2557,
      "Ġsuggest": 2558,
      "yl": 2559,
      "Ġrepublic": 2560,
      "ially": 2561,
      "Ġhu": 2562,
      "Ġphot": 2563,
      "Ġmilit": 2564,
      "inal": 2565,
      "Ġboard": 2566,
      "under": 2567,
      "Ġamount": 2568,
      "rodu": 2569,
      "Ġring": 2570,
      "ĠĠĠĠĠĠĠĠ": 2571,
      "olution": 2572,
      "Ġsand": 2573,
      "Ġfuture": 2574,
      "Ġstri": 2575,
      "Ġdifficult": 2576,
      "Ġmis": 2577,
      "Ġsurpr": 2578,
      "Ġburn": 2579,
      "Ġrole": 2580,
      "Ġcorn": 2581,
      "Ġchampions": 2582,
      "Ġhospital": 2583,
      "back": 2584,
      "Ġcam": 2585,
      "Ġweeks": 2586,
      "Ġdu": 2587,
      "oint": 2588,
      "Ġrecogn": 2589,
      "Ġpolic": 2590,
      "Ġpeter": 2591,
      "Ġthanks": 2592,
      "Ġber": 2593,
      "Ġfle": 2594,
      "Ġlaugh": 2595,
      "off": 2596,
      "ston": 2597,
      "Ġbooks": 2598,
      "Ġsar": 2599,
      "Ġfill": 2600,
      "Ġdecided": 2601,
      "bor": 2602,
      "Ġdrive": 2603,
      "Ġsave": 2604,
      "Ġjour": 2605,
      "Ġfeeling": 2606,
      "Ġsafe": 2607,
      "Ġcentral": 2608,
      "Ġben": 2609,
      "Ġserved": 2610,
      "Ġgeorge": 2611,
      "Ġaustral": 2612,
      "Ġ]": 2613,
      "gl": 2614,
      "tom": 2615,
      "Ġevening": 2616,
      "cast": 2617,
      "teen": 2618,
      "Ġforest": 2619,
      "Ġslow": 2620,
      "sure": 2621,
      "Ġnon": 2622,
      "yle": 2623,
      "Ġfunny": 2624,
      "Ġstood": 2625,
      "does": 2626,
      "pecially": 2627,
      "Ġarch": 2628,
      "Ġhung": 2629,
      "Ġ24": 2630,
      "Ġimag": 2631,
      "Ġdar": 2632,
      "gs": 2633,
      "Ġhall": 2634,
      "Ġtrack": 2635,
      "wor": 2636,
      "zz": 2637,
      "Ġcarry": 2638,
      "ergy": 2639,
      "Ġcover": 2640,
      "lin": 2641,
      "omin": 2642,
      "Ġwilliam": 2643,
      "Ġmatch": 2644,
      "Ġgentle": 2645,
      "Ġcomb": 2646,
      "Ġprovince": 2647,
      "Ġain": 2648,
      "Ġtelling": 2649,
      "Ġbene": 2650,
      "Ġcommunity": 2651,
      "15": 2652,
      "Ġmeant": 2653,
      "Ġban": 2654,
      "riage": 2655,
      "empt": 2656,
      "Ġahead": 2657,
      "cher": 2658,
      "Ġexist": 2659,
      "Ġanyway": 2660,
      "Ġproblems": 2661,
      "Ġbear": 2662,
      "Ġpassed": 2663,
      "Ġcool": 2664,
      "Ġgard": 2665,
      "Ġshop": 2666,
      "Ġshar": 2667,
      "Ġterri": 2668,
      "ades": 2669,
      "ping": 2670,
      "Ġlos": 2671,
      "Ġchief": 2672,
      "Ġfinal": 2673,
      "Ġcenter": 2674,
      "Ġcried": 2675,
      "Ġmeeting": 2676,
      "dad": 2677,
      "Ġfigure": 2678,
      "oon": 2679,
      "Ġfix": 2680,
      "pa": 2681,
      "iment": 2682,
      "nel": 2683,
      "Ġkiss": 2684,
      "agon": 2685,
      "Ġfrank": 2686,
      "Ġprison": 2687,
      "Ġcrazy": 2688,
      "Ġur": 2689,
      "Ġprin": 2690,
      "ceed": 2691,
      "Ġsail": 2692,
      "Ġcatch": 2693,
      "Ġhoney": 2694,
      "Ġfed": 2695,
      "Ġparents": 2696,
      "cap": 2697,
      "str": 2698,
      "Ġ192": 2699,
      "Ġanimals": 2700,
      "Ġmouth": 2701,
      "Ġsubject": 2702,
      "Ġindia": 2703,
      "val": 2704,
      "ris": 2705,
      "ued": 2706,
      "Ġteacher": 2707,
      "Ġsoft": 2708,
      "ager": 2709,
      "Ġmater": 2710,
      "ole": 2711,
      "Ġfamil": 2712,
      "Ġobject": 2713,
      "viously": 2714,
      "Ġaut": 2715,
      "Ġjames": 2716,
      "Ġenjo": 2717,
      "Ġbag": 2718,
      "Ġbattle": 2719,
      "Ġdanger": 2720,
      "Ġrelation": 2721,
      "inois": 2722,
      "Ġsimilar": 2723,
      "Ġmodern": 2724,
      "omb": 2725,
      "Ġruss": 2726,
      "Ġfort": 2727,
      "Ġwal": 2728,
      "Ġaud": 2729,
      "Ġdoll": 2730,
      "Ġspecies": 2731,
      "Ġsick": 2732,
      "Ġplaces": 2733,
      "Ġsociety": 2734,
      "17": 2735,
      "rit": 2736,
      "Ġbat": 2737,
      "Ġhost": 2738,
      "Ġkingdom": 2739,
      "Ġalthough": 2740,
      "Ġherself": 2741,
      "Ġlearn": 2742,
      "Ġcause": 2743,
      "Ġreturned": 2744,
      "Ġglad": 2745,
      "Ġviol": 2746,
      "Ġbor": 2747,
      "Ġfollowed": 2748,
      "Ġmach": 2749,
      "âĢĶ": 2750,
      "Ġclos": 2751,
      "Ġhappens": 2752,
      "Ġindust": 2753,
      "Ġopened": 2754,
      "vir": 2755,
      "bar": 2756,
      "Ġparts": 2757,
      "Ġestab": 2758,
      "Ġfish": 2759,
      "Ġgermany": 2760,
      "Ġscience": 2761,
      "know": 2762,
      "ored": 2763,
      "Ġ2011": 2764,
      "Ġcertainly": 2765,
      "Ġhun": 2766,
      "ician": 2767,
      "Ġoriginal": 2768,
      "Ġbow": 2769,
      "keep": 2770,
      "Ġglass": 2771,
      "ville": 2772,
      "Ġmoving": 2773,
      "Ġange": 2774,
      "ression": 2775,
      "Ġcolor": 2776,
      "nes": 2777,
      "lect": 2778,
      "Ġcoast": 2779,
      "Ġjapanese": 2780,
      "Ġrich": 2781,
      "Ġwhom": 2782,
      "Ġ2006": 2783,
      "Ġbeginning": 2784,
      "Ġfir": 2785,
      "Ġum": 2786,
      "Ġmarket": 2787,
      "Ġcouncil": 2788,
      "god": 2789,
      "really": 2790,
      "Ġpeace": 2791,
      "Ġappear": 2792,
      "Ġwild": 2793,
      "Ġsepar": 2794,
      "12": 2795,
      "14": 2796,
      "Ġfellow": 2797,
      "Ġillinois": 2798,
      "Ġsad": 2799,
      "Ġstick": 2800,
      "nothing": 2801,
      "bon": 2802,
      "Ġbecom": 2803,
      "ift": 2804,
      "Ġflor": 2805,
      "Ġfloor": 2806,
      "Ġ2012": 2807,
      "Ġself": 2808,
      "wered": 2809,
      "ires": 2810,
      "edi": 2811,
      "Ġwhose": 2812,
      "had": 2813,
      "cus": 2814,
      "Ġbreat": 2815,
      "wood": 2816,
      "Ġmary": 2817,
      "Ġbank": 2818,
      "Ġord": 2819,
      "Ġtyp": 2820,
      "Ġquickly": 2821,
      "Ġ100": 2822,
      "Ġgrad": 2823,
      "Ġdaddy": 2824,
      "inite": 2825,
      "Ġfer": 2826,
      "Ġhol": 2827,
      "Ġwel": 2828,
      "Ġfeat": 2829,
      "min": 2830,
      "ply": 2831,
      "itted": 2832,
      "Ġquiet": 2833,
      "iers": 2834,
      "Ġtowards": 2835,
      "ishing": 2836,
      "alright": 2837,
      "Ġinteresting": 2838,
      "Ġradio": 2839,
      "Ġspend": 2840,
      "Ġvisit": 2841,
      "erson": 2842,
      "Ġagre": 2843,
      "Ġthrow": 2844,
      "Ġsitting": 2845,
      "ica": 2846,
      "Ġvirginia": 2847,
      "Ġalright": 2848,
      "Ġquestions": 2849,
      "Ġlu": 2850,
      "Ġactiv": 2851,
      "Ġtotal": 2852,
      "Ġleaving": 2853,
      "ram": 2854,
      "Ġfinished": 2855,
      "Ġstudents": 2856,
      "hist": 2857,
      "Ġpaid": 2858,
      "Ġpolitical": 2859,
      "orts": 2860,
      "xic": 2861,
      "action": 2862,
      "Ġannoun": 2863,
      "Ġarg": 2864,
      "Ġhistor": 2865,
      "ka": 2866,
      "old": 2867,
      "Ġfac": 2868,
      "ising": 2869,
      "Ġident": 2870,
      "ga": 2871,
      "ume": 2872,
      "Ġfem": 2873,
      "Ġthou": 2874,
      "imate": 2875,
      "cour": 2876,
      "Ġlou": 2877,
      "abad": 2878,
      "Ġneigh": 2879,
      "Ġnecess": 2880,
      "Ġcab": 2881,
      "Ġroyal": 2882,
      "Ġdisapp": 2883,
      "iforn": 2884,
      "Ġmiles": 2885,
      "dam": 2886,
      "face": 2887,
      "bet": 2888,
      "Ġsuppose": 2889,
      "aff": 2890,
      "Ġgiving": 2891,
      "play": 2892,
      "_,": 2893,
      "Ġrid": 2894,
      "Ġminister": 2895,
      "Ġice": 2896,
      "cient": 2897,
      "Ġmention": 2898,
      "Ġglo": 2899,
      "Ġjim": 2900,
      "âĢİ": 2901,
      "Ġfund": 2902,
      "Ġkey": 2903,
      "Ġaccount": 2904,
      "nock": 2905,
      "mus": 2906,
      "Ġegg": 2907,
      "Ġtax": 2908,
      "Ġterms": 2909,
      "eter": 2910,
      "ifornia": 2911,
      "Ġpy": 2912,
      "Ġeducation": 2913,
      "Ġbase": 2914,
      "Ġfinally": 2915,
      "Ġnatural": 2916,
      "Ġdevelopment": 2917,
      "Ġmommy": 2918,
      "Ġofficer": 2919,
      ".,": 2920,
      "Ġmir": 2921,
      "Ġlose": 2922,
      "house": 2923,
      "Ġfing": 2924,
      "Ġdance": 2925,
      "Ġsearch": 2926,
      "Ġmart": 2927,
      "oops": 2928,
      "cos": 2929,
      "Ġstage": 2930,
      "Ġforward": 2931,
      "Ġmun": 2932,
      "Ġseat": 2933,
      "Ġ(\"": 2934,
      "itional": 2935,
      "Ġbrown": 2936,
      "Ġchampionship": 2937,
      "Ġq": 2938,
      "Ġnature": 2939,
      "mat": 2940,
      "Ġtv": 2941,
      "Ġways": 2942,
      "Ġbelong": 2943,
      "Ġexperience": 2944,
      "aha": 2945,
      "Ġreached": 2946,
      "Ġclaim": 2947,
      "Ġinflu": 2948,
      "only": 2949,
      "ivid": 2950,
      "gn": 2951,
      "west": 2952,
      "Ġdepend": 2953,
      "iel": 2954,
      "Ġvarious": 2955,
      "Ġrout": 2956,
      "Ġjer": 2957,
      "rel": 2958,
      "ids": 2959,
      "Ġstudy": 2960,
      "Ġnumbers": 2961,
      "ste": 2962,
      "Ġpublished": 2963,
      "Ġdestro": 2964,
      "van": 2965,
      "Ġwestern": 2966,
      "ear": 2967,
      "Ġ#": 2968,
      "Ġcy": 2969,
      "Ġcro": 2970,
      "Ġinf": 2971,
      "Ġblock": 2972,
      "ya": 2973,
      "Ġplant": 2974,
      "Ġdru": 2975,
      "Ġaction": 2976,
      "Ġanswered": 2977,
      "Ġrespons": 2978,
      "Ġprivate": 2979,
      "Ġii": 2980,
      "about": 2981,
      "Ġcard": 2982,
      "ressed": 2983,
      "ensive": 2984,
      "Ġequal": 2985,
      "itz": 2986,
      "Ġcalifornia": 2987,
      "Ġcand": 2988,
      "cape": 2989,
      "while": 2990,
      "Ġdra": 2991,
      "rem": 2992,
      "Ġperm": 2993,
      "itution": 2994,
      "Ġintrodu": 2995,
      "Ġcens": 2996,
      "Ġanymore": 2997,
      "Ġenergy": 2998,
      "cious": 2999,
      "ius": 3000,
      "Ġstrange": 3001,
      "Ġallowed": 3002,
      "Ġwindow": 3003,
      "ago": 3004,
      "ero": 3005,
      "olutely": 3006,
      "Ġshows": 3007,
      "inct": 3008,
      "Ġfear": 3009,
      "Ġconsider": 3010,
      "cul": 3011,
      "Ġgri": 3012,
      "Ġwashing": 3013,
      "Ġ23": 3014,
      "Ġmedic": 3015,
      "Ġsurv": 3016,
      "Ġwed": 3017,
      "Ġken": 3018,
      "rian": 3019,
      "Ġaff": 3020,
      "Ġquar": 3021,
      "Ġdiscuss": 3022,
      "Ġmaterial": 3023,
      "Ġlocated": 3024,
      "Ġindepend": 3025,
      "Ġinvolved": 3026,
      "Ġspirit": 3027,
      "vin": 3028,
      "listen": 3029,
      "Ġlock": 3030,
      "Ġsimple": 3031,
      "Ġsomewhere": 3032,
      "Ġserious": 3033,
      "Ġcaught": 3034,
      "Ġliter": 3035,
      "idered": 3036,
      "Ġprince": 3037,
      "first": 3038,
      "hood": 3039,
      "Ġprim": 3040,
      "yer": 3041,
      "olic": 3042,
      "Ġ50": 3043,
      "13": 3044,
      "nded": 3045,
      "Ġdise": 3046,
      "Ġale": 3047,
      "Ġanybody": 3048,
      "Ġboat": 3049,
      "Ġfat": 3050,
      "Ġyours": 3051,
      "Ġrose": 3052,
      "ruction": 3053,
      "Ġdirector": 3054,
      "Ġprofessional": 3055,
      "Ġdinner": 3056,
      "ked": 3057,
      "Ġsize": 3058,
      "?âĢĿ": 3059,
      "cal": 3060,
      "Ġwat": 3061,
      "Ġindeed": 3062,
      "mic": 3063,
      "iny": 3064,
      "has": 3065,
      "Ġalive": 3066,
      "bour": 3067,
      "Ġah": 3068,
      "Ġclothes": 3069,
      "\")": 3070,
      "Ġ01": 3071,
      "Ġforgot": 3072,
      "Ġsuff": 3073,
      "people": 3074,
      "ength": 3075,
      "uit": 3076,
      "Ġjump": 3077,
      "Ġneeded": 3078,
      "Ġ2014": 3079,
      "Ġespecially": 3080,
      "Ġflorida": 3081,
      "Ġgives": 3082,
      "Ġsam": 3083,
      "Ġvalue": 3084,
      "mas": 3085,
      "Ġbi": 3086,
      "Ġmichael": 3087,
      "Ġox": 3088,
      "Ġtitle": 3089,
      "Ġwriting": 3090,
      "ails": 3091,
      "Ġepis": 3092,
      "Ġspan": 3093,
      "nees": 3094,
      "ba": 3095,
      "hod": 3096,
      "Ġfavor": 3097,
      "bel": 3098,
      "pap": 3099,
      "Ġtar": 3100,
      "Ġaccording": 3101,
      "ites": 3102,
      "Ġwear": 3103,
      "aining": 3104,
      "omas": 3105,
      "Ġsituation": 3106,
      "wow": 3107,
      "Ġsour": 3108,
      "say": 3109,
      "set": 3110,
      "wr": 3111,
      "Ġplat": 3112,
      "Ġbridge": 3113,
      "Ġcompan": 3114,
      "Ġmilitary": 3115,
      "icip": 3116,
      "Ġcensus": 3117,
      "field": 3118,
      "Ġdemo": 3119,
      "Ġprincess": 3120,
      "sm": 3121,
      "ctions": 3122,
      "iff": 3123,
      "ĠĠĠĠĠĠ": 3124,
      "Ġspent": 3125,
      "Ġconsidered": 3126,
      "Ġimmedi": 3127,
      "viron": 3128,
      "Ġut": 3129,
      "Ġpack": 3130,
      "Ġpage": 3131,
      "dered": 3132,
      "Ġpun": 3133,
      "irt": 3134,
      "Ġvan": 3135,
      "Ġhero": 3136,
      "Ġ)": 3137,
      "Ġheavy": 3138,
      "Ġappeared": 3139,
      "des": 3140,
      "Ġsquare": 3141,
      "ining": 3142,
      "Ġmix": 3143,
      "Ġdavid": 3144,
      "upid": 3145,
      "could": 3146,
      "Ġsnow": 3147,
      "asons": 3148,
      "que": 3149,
      "Ġdate": 3150,
      "iday": 3151,
      "Ġadded": 3152,
      "ipe": 3153,
      "Ġ21": 3154,
      "Ġmanage": 3155,
      "Ġseeing": 3156,
      "ences": 3157,
      "Ġspeed": 3158,
      "Ġ2007": 3159,
      "ground": 3160,
      "Ġpaul": 3161,
      "Ġchristian": 3162,
      "Ġdecl": 3163,
      "bi": 3164,
      "illy": 3165,
      "Ġ2016": 3166,
      "bes": 3167,
      "Ġarms": 3168,
      "Ġearli": 3169,
      "Ġgrew": 3170,
      "Ġproduced": 3171,
      "Ġextra": 3172,
      "Ġbought": 3173,
      "Ġstopped": 3174,
      "Ġstanding": 3175,
      "Ġscient": 3176,
      "Ġgas": 3177,
      "Ġresearch": 3178,
      "those": 3179,
      "bu": 3180,
      "ria": 3181,
      "tered": 3182,
      "eh": 3183,
      "Ġpurp": 3184,
      "ounded": 3185,
      "Ġ190": 3186,
      "Ġbroke": 3187,
      "aven": 3188,
      "lla": 3189,
      "Ġenviron": 3190,
      "Ġsongs": 3191,
      "Ġdick": 3192,
      "ique": 3193,
      "inary": 3194,
      "itor": 3195,
      "cons": 3196,
      "down": 3197,
      "Ġgree": 3198,
      "uel": 3199,
      "Ġpsy": 3200,
      "Ġ26": 3201,
      "Ġtor": 3202,
      "Ġofficial": 3203,
      "ners": 3204,
      "sue": 3205,
      "uses": 3206,
      "hic": 3207,
      "inist": 3208,
      "Ġstone": 3209,
      "Ġtea": 3210,
      "Ġcomputer": 3211,
      "200": 3212,
      "Ġissu": 3213,
      "Ġrights": 3214,
      "wise": 3215,
      "Ġblow": 3216,
      "50": 3217,
      "Ġwide": 3218,
      "Ġredu": 3219,
      "Ġattempt": 3220,
      "board": 3221,
      "Ġmc": 3222,
      "Ġdig": 3223,
      "Ġacad": 3224,
      "iques": 3225,
      "Ġnames": 3226,
      "Ġet": 3227,
      "Ġ22": 3228,
      "Ġavail": 3229,
      "three": 3230,
      "Ġmultip": 3231,
      "ument": 3232,
      "ura": 3233,
      "Ġsimply": 3234,
      "esus": 3235,
      "ara": 3236,
      "ify": 3237,
      "Ġdivision": 3238,
      "Ġopport": 3239,
      "Ġmurder": 3240,
      "Ġtrade": 3241,
      "Ġscott": 3242,
      "Ġgroups": 3243,
      "ibility": 3244,
      "Ġexe": 3245,
      "Ġattention": 3246,
      "Ġobser": 3247,
      "hal": 3248,
      "Ġcapt": 3249,
      "ises": 3250,
      "Ġrelationship": 3251,
      "Ġpath": 3252,
      "Ġancient": 3253,
      "Ġindivid": 3254,
      "Ġsens": 3255,
      "aker": 3256,
      "Ġrichard": 3257,
      "era": 3258,
      "lebr": 3259,
      "Ġversion": 3260,
      "vious": 3261,
      "acc": 3262,
      "ests": 3263,
      "Ġdry": 3264,
      "Ġthus": 3265,
      "Ġdoubt": 3266,
      "ffee": 3267,
      "Ġopportun": 3268,
      "je": 3269,
      "istic": 3270,
      "Ġpersonal": 3271,
      "Ġhate": 3272,
      "ancy": 3273,
      "Ġrace": 3274,
      "Ġmountain": 3275,
      "Ġinit": 3276,
      "Ġuncle": 3277,
      "Ġplays": 3278,
      "Ġoil": 3279,
      "Ġlargest": 3280,
      "Ġdemocr": 3281,
      "nal": 3282,
      "Ġasking": 3283,
      "Ġpoints": 3284,
      "Ġincluded": 3285,
      "exc": 3286,
      "anch": 3287,
      "Ġanimal": 3288,
      "ability": 3289,
      "aves": 3290,
      "incip": 3291,
      "dd": 3292,
      "sir": 3293,
      "ena": 3294,
      "Ġbroken": 3295,
      "col": 3296,
      "ively": 3297,
      "Ġmarriage": 3298,
      "Ġhenry": 3299,
      "16": 3300,
      "mom": 3301,
      "Ġbes": 3302,
      "Ġattend": 3303,
      "Ġactor": 3304,
      "Ġdifference": 3305,
      "Ġoly": 3306,
      "Ġeff": 3307,
      "urity": 3308,
      "Ġneg": 3309,
      "Ġimpro": 3310,
      "Ġbelow": 3311,
      "ological": 3312,
      "Ġemplo": 3313,
      "john": 3314,
      "Ġloved": 3315,
      "Ġcontract": 3316,
      "Ġsouthern": 3317,
      "Ġmel": 3318,
      "Ġrecords": 3319,
      "ket": 3320,
      "Ġpu": 3321,
      "Ġcompletely": 3322,
      "Ġkn": 3323,
      "Ġcru": 3324,
      "rect": 3325,
      "Ġlower": 3326,
      "Ġemb": 3327,
      "ooh": 3328,
      "Ġplus": 3329,
      "astic": 3330,
      "Ġnorthern": 3331,
      "Ġreach": 3332,
      "Ġcarried": 3333,
      "Ġ2009": 3334,
      "Ġmovement": 3335,
      "Ġtall": 3336,
      "ators": 3337,
      "Ġhous": 3338,
      "Ġfool": 3339,
      "Ġcow": 3340,
      "Ġguard": 3341,
      "Ġshouldn": 3342,
      "Ġenvironment": 3343,
      "Ġaccess": 3344,
      "Ġwatching": 3345,
      "Ġmeaning": 3346,
      "ki": 3347,
      "Ġrefer": 3348,
      "great": 3349,
      "Ġsite": 3350,
      "Ġshare": 3351,
      "Ġ`": 3352,
      "Ġrap": 3353,
      "Ġprime": 3354,
      "Ġspeaking": 3355,
      "Ġjoined": 3356,
      "Ġ2008": 3357,
      "vies": 3358,
      "itude": 3359,
      "Ġlength": 3360,
      "Ġwit": 3361,
      "Ġbright": 3362,
      "llen": 3363,
      "Ġmoon": 3364,
      "za": 3365,
      "Ġ2015": 3366,
      "bing": 3367,
      "Ġvall": 3368,
      "Ġhigher": 3369,
      "Ġsuddenly": 3370,
      "Ġbath": 3371,
      "Ġlying": 3372,
      "terday": 3373,
      "Ġtalked": 3374,
      "comp": 3375,
      "pper": 3376,
      "Ġcelebr": 3377,
      "Ġmax": 3378,
      "Ġnearly": 3379,
      "ension": 3380,
      "comm": 3381,
      "Ġhi": 3382,
      "Ġ28": 3383,
      "ledge": 3384,
      "Ġbang": 3385,
      "Ġlake": 3386,
      "Ġnormal": 3387,
      "nie": 3388,
      "Ġsight": 3389,
      "antly": 3390,
      "lim": 3391,
      "Ġhonest": 3392,
      "Ġareas": 3393,
      "Ġcongress": 3394,
      "Ġfaith": 3395,
      "asion": 3396,
      "Ġamaz": 3397,
      "phone": 3398,
      "Ġmedia": 3399,
      "Ġmodel": 3400,
      "ev": 3401,
      "Ġsevent": 3402,
      "cks": 3403,
      "Ġmethod": 3404,
      "Ġpromise": 3405,
      "Ġmac": 3406,
      "Ġsell": 3407,
      "Ġwarm": 3408,
      "Ġbirthday": 3409,
      "aps": 3410,
      "Ġhappening": 3411,
      "Ġpsych": 3412,
      "Ġcust": 3413,
      "Ġappoint": 3414,
      "aug": 3415,
      "Ġassociation": 3416,
      "Ġ2022": 3417,
      "cell": 3418,
      "Ġoccur": 3419,
      "Ġfres": 3420,
      "Ġ2000": 3421,
      "Ġempire": 3422,
      "Ġreview": 3423,
      "Ġevidence": 3424,
      "Ġsac": 3425,
      "iction": 3426,
      "Ġcaused": 3427,
      "Ġscene": 3428,
      "Ġtraining": 3429,
      "fuck": 3430,
      "Ġlines": 3431,
      "Ġpray": 3432,
      "Ġtick": 3433,
      "Ġregard": 3434,
      "Ġstupid": 3435,
      "Ġprincip": 3436,
      "Ġdata": 3437,
      "Ġprice": 3438,
      "Ġcastle": 3439,
      "Ġbottom": 3440,
      "Ġcases": 3441,
      "Ġfit": 3442,
      "Ġbey": 3443,
      "aded": 3444,
      "never": 3445,
      "excuse": 3446,
      "erve": 3447,
      "Ġinj": 3448,
      "Ġbell": 3449,
      "Ġmarry": 3450,
      "Ġregular": 3451,
      "Ġbob": 3452,
      "Ġscot": 3453,
      "Ġsounds": 3454,
      "bles": 3455,
      "father": 3456,
      "Ġcoffee": 3457,
      "cont": 3458,
      "Ġfamilies": 3459,
      "miss": 3460,
      "net": 3461,
      "Ġbrand": 3462,
      "Ġtrees": 3463,
      "Ġoce": 3464,
      "Ġ27": 3465,
      "Ġchem": 3466,
      "Ġmilk": 3467,
      "Ġgarden": 3468,
      "nor": 3469,
      "hest": 3470,
      "Ġinterested": 3471,
      "Ġmovies": 3472,
      "Ġleader": 3473,
      "Ġservices": 3474,
      "Ġhonor": 3475,
      "Ġhom": 3476,
      "Ġnobody": 3477,
      "Ġassist": 3478,
      "oted": 3479,
      "Ġchina": 3480,
      "Ġprep": 3481,
      "Ġach": 3482,
      "Ġfeed": 3483,
      "Ġgovernor": 3484,
      "30": 3485,
      "osop": 3486,
      "Ġmuse": 3487,
      "Ġtemper": 3488,
      "win": 3489,
      "Ġchick": 3490,
      "reen": 3491,
      "Ġbay": 3492,
      "Ġmum": 3493,
      "Ġgall": 3494,
      "Ġstore": 3495,
      "Ġ40": 3496,
      "arily": 3497,
      "lement": 3498,
      "ously": 3499,
      "Ġ2005": 3500,
      "Ġfounded": 3501,
      "chen": 3502,
      "Ġformed": 3503,
      "Ġschools": 3504,
      "Ġthreat": 3505,
      "Ġstories": 3506,
      "Ġstarting": 3507,
      "Ġdeveloped": 3508,
      "Ġwonderful": 3509,
      "fact": 3510,
      "noon": 3511,
      "Ġbrain": 3512,
      "Ġshowed": 3513,
      "Ġavailable": 3514,
      "ils": 3515,
      "year": 3516,
      "oles": 3517,
      "Ġarr": 3518,
      "ibly": 3519,
      "Ġcontinued": 3520,
      "Ġbirds": 3521,
      "Ġhuge": 3522,
      "Ġknock": 3523,
      "Ġstars": 3524,
      "ech": 3525,
      "11": 3526,
      "usion": 3527,
      "Ġpercent": 3528,
      "Ġwinter": 3529,
      "Ġol": 3530,
      "Ġtherefore": 3531,
      "Ġannounced": 3532,
      "char": 3533,
      "iled": 3534,
      "Ġflight": 3535,
      "Ġcrow": 3536,
      "Ġfarm": 3537,
      "Ġeuropean": 3538,
      "Ġhelped": 3539,
      "Ġafrica": 3540,
      "bal": 3541,
      "Ġble": 3542,
      "Ġfest": 3543,
      "Ġjose": 3544,
      "Ġparis": 3545,
      "Ġchoice": 3546,
      "initely": 3547,
      "Ġheaven": 3548,
      "call": 3549,
      "Ġagree": 3550,
      "Ġspring": 3551,
      "Ġpieces": 3552,
      "Ġaustralia": 3553,
      "Ġweren": 3554,
      "Ġtext": 3555,
      "ips": 3556,
      "Ġscared": 3557,
      "ban": 3558,
      "Ġba": 3559,
      "Ġkick": 3560,
      "Ġforces": 3561,
      "Ġaddress": 3562,
      "illa": 3563,
      "olk": 3564,
      "Ġcoach": 3565,
      "Ġsky": 3566,
      "Ġtast": 3567,
      "Ġeating": 3568,
      "Ġrac": 3569,
      "Ġmexic": 3570,
      "Ġsymp": 3571,
      "Ġwashington": 3572,
      "Ġtired": 3573,
      "reme": 3574,
      "Ġ29": 3575,
      "war": 3576,
      "sec": 3577,
      "aph": 3578,
      "Ġspoke": 3579,
      "aur": 3580,
      "Ġkit": 3581,
      "Ġfourth": 3582,
      "Ġrule": 3583,
      "iation": 3584,
      "Ġstyle": 3585,
      "Ġnovel": 3586,
      "Ġalex": 3587,
      "sit": 3588,
      "Ġoffer": 3589,
      "Ġended": 3590,
      "ek": 3591,
      "iot": 3592,
      "Ġess": 3593,
      "Ġaver": 3594,
      "reng": 3595,
      "Ġprize": 3596,
      "Ġboss": 3597,
      "Ġcath": 3598,
      "Ġoffe": 3599,
      "aign": 3600,
      "hib": 3601,
      "pir": 3602,
      "Ġcomfort": 3603,
      "ales": 3604,
      "western": 3605,
      "Ġtheory": 3606,
      "Ġwa": 3607,
      "Ġcrew": 3608,
      "Ġhello": 3609,
      "Ġchanges": 3610,
      "Ġly": 3611,
      "Ġund": 3612,
      "Ġworse": 3613,
      "Ġcalling": 3614,
      "Ġletters": 3615,
      "iced": 3616,
      "Ġthirty": 3617,
      "Ġforeign": 3618,
      "Ġarrest": 3619,
      "Ġclosed": 3620,
      "Ġwalked": 3621,
      "Ġraised": 3622,
      "Ġpalace": 3623,
      "Ġiron": 3624,
      "Ġride": 3625,
      "Ġanal": 3626,
      "gree": 3627,
      "ential": 3628,
      "ams": 3629,
      "bell": 3630,
      "Ġcommitt": 3631,
      "Ġdecision": 3632,
      "Ġlearned": 3633,
      "igg": 3634,
      "Ġiran": 3635,
      "dis": 3636,
      "oid": 3637,
      "Ġdocum": 3638,
      "cket": 3639,
      "da": 3640,
      "Ġ:": 3641,
      "Ġneck": 3642,
      "Ġdouble": 3643,
      "Ġadminist": 3644,
      "Ġcode": 3645,
      "Ġitalian": 3646,
      "Ġmuseum": 3647,
      "Ġtim": 3648,
      "Ġmem": 3649,
      "Ġpolitician": 3650,
      "Ġsecurity": 3651,
      "Ġcharge": 3652,
      "Ġhotel": 3653,
      "Ġdisease": 3654,
      "Ġnone": 3655,
      "Ġyesterday": 3656,
      "Ġproduction": 3657,
      "Ġsoul": 3658,
      "Ġolymp": 3659,
      "Ġdemand": 3660,
      "Ġemer": 3661,
      "Ġcomed": 3662,
      "Ġspecific": 3663,
      "Ġspl": 3664,
      "should": 3665,
      "Ġputting": 3666,
      "ari": 3667,
      "aled": 3668,
      "Ġlikely": 3669,
      "Ġcharles": 3670,
      "Ġdistance": 3671,
      "Ġwelcome": 3672,
      "Ġmunicip": 3673,
      "Ġplatform": 3674,
      "het": 3675,
      "Ġbeha": 3676,
      "Ġsuit": 3677,
      "Ġskin": 3678,
      "Ġpolicy": 3679,
      "hand": 3680,
      "Ġcampaign": 3681,
      "Ġmessage": 3682,
      "bre": 3683,
      "pping": 3684,
      "istan": 3685,
      "order": 3686,
      "Ġought": 3687,
      "Ġissue": 3688,
      "Ġcreate": 3689,
      "ja": 3690,
      "Ġdeterm": 3691,
      "Ġexplain": 3692,
      "Ġtail": 3693,
      "oop": 3694,
      "Ġjoin": 3695,
      "Ġfighting": 3696,
      "Ġimmediately": 3697,
      "Ġfinish": 3698,
      "Ġslight": 3699,
      "Ġelection": 3700,
      "Ġoppos": 3701,
      "Ġbenef": 3702,
      "Ġocean": 3703,
      "ateg": 3704,
      "Ġevents": 3705,
      "Ġpictures": 3706,
      "something": 3707,
      "Ġafternoon": 3708,
      "Ġmostly": 3709,
      "Ġprofessor": 3710,
      "ushed": 3711,
      "sequ": 3712,
      "ables": 3713,
      "Ġdesp": 3714,
      "vere": 3715,
      "Ġtra": 3716,
      "Ġtruck": 3717,
      "Ġangry": 3718,
      "Ġnative": 3719,
      "Ġbeach": 3720,
      "Ġaffect": 3721,
      "Ġideas": 3722,
      "dep": 3723,
      "sing": 3724,
      "Ġmars": 3725,
      "road": 3726,
      "liament": 3727,
      "Ġcred": 3728,
      "Ġrub": 3729,
      "ilities": 3730,
      "Ġbelieved": 3731,
      "Ġnetwork": 3732,
      "aren": 3733,
      "Ġenemy": 3734,
      "Ġspread": 3735,
      "laugh": 3736,
      "Ġmm": 3737,
      "atlant": 3738,
      "ental": 3739,
      "Ġbusy": 3740,
      "fast": 3741,
      "Ġbasket": 3742,
      "Ġemot": 3743,
      "damn": 3744,
      "Ġlovely": 3745,
      "Ġearlier": 3746,
      "nat": 3747,
      "Ġow": 3748,
      "Ġflowers": 3749,
      "Ġcentre": 3750,
      "aries": 3751,
      "add": 3752,
      "ession": 3753,
      "Ġcontinue": 3754,
      "welve": 3755,
      ".'": 3756,
      "Ġcell": 3757,
      "Ġbrothers": 3758,
      "Ġbloody": 3759,
      "burg": 3760,
      "Ġspanish": 3761,
      "isions": 3762,
      "Ġrepe": 3763,
      "Ġnote": 3764,
      "Ġalan": 3765,
      "oman": 3766,
      "ashion": 3767,
      "ocol": 3768,
      "Ġcit": 3769,
      "iles": 3770,
      "lam": 3771,
      "Ġweap": 3772,
      "Ġcondu": 3773,
      "shire": 3774,
      "Ġintell": 3775,
      "ography": 3776,
      "Ġphilosop": 3777,
      "Ġnar": 3778,
      "berg": 3779,
      "Ġdrop": 3780,
      "everything": 3781,
      "Ġyouth": 3782,
      "uts": 3783,
      "uten": 3784,
      "Ġyellow": 3785,
      "ji": 3786,
      "since": 3787,
      "Ġcities": 3788,
      "ented": 3789,
      "Ġabsolutely": 3790,
      "Ġarrived": 3791,
      "ppy": 3792,
      "Ġjudge": 3793,
      "Ġvalley": 3794,
      "Ġdom": 3795,
      "Ġlink": 3796,
      "iling": 3797,
      "Ġrobert": 3798,
      "Ġinstit": 3799,
      "Ġartic": 3800,
      "Ġmachine": 3801,
      "Ġweight": 3802,
      "Ġamb": 3803,
      "Ġflat": 3804,
      "Ġleaves": 3805,
      "gun": 3806,
      "law": 3807,
      "Ġ2004": 3808,
      "Ġcareful": 3809,
      "ato": 3810,
      "esty": 3811,
      "Ġfault": 3812,
      "Ġterrible": 3813,
      "Ġnecessary": 3814,
      "Ġinvestig": 3815,
      "Ġestablished": 3816,
      "Ġpush": 3817,
      "Ġcovered": 3818,
      "Ġrailway": 3819,
      "atives": 3820,
      "Ġstreng": 3821,
      "Ġspot": 3822,
      "Ġcontact": 3823,
      "Ġforth": 3824,
      "sey": 3825,
      "rupt": 3826,
      "Ġopin": 3827,
      "Ġmedical": 3828,
      "Ġcommunic": 3829,
      "ieve": 3830,
      "Ġtend": 3831,
      "Ġprint": 3832,
      "Ġ189": 3833,
      "Ġreading": 3834,
      "Ġpyre": 3835,
      "Ġparliament": 3836,
      "Ġaccident": 3837,
      "Ġsignific": 3838,
      "Ġitaly": 3839,
      "ients": 3840,
      "Ġeastern": 3841,
      "foot": 3842,
      "Ġpir": 3843,
      "Ġkore": 3844,
      "Ġholding": 3845,
      "Ġextreme": 3846,
      "Ġcommittee": 3847,
      "Ġthomas": 3848,
      "Ġattract": 3849,
      "Ġcorner": 3850,
      "hmm": 3851,
      "Ġder": 3852,
      "Ġ()": 3853,
      "Ġcommer": 3854,
      "Ġsinger": 3855,
      "sl": 3856,
      "using": 3857,
      "vert": 3858,
      "Ġescape": 3859,
      "Ġsystems": 3860,
      "Ġsuccessful": 3861,
      "tering": 3862,
      "Ġwalking": 3863,
      "mother": 3864,
      "vo": 3865,
      "zen": 3866,
      "aked": 3867,
      "Ġpurpose": 3868,
      "four": 3869,
      "friend": 3870,
      "once": 3871,
      "ller": 3872,
      "Ġgrant": 3873,
      "Ġ186": 3874,
      "Ġze": 3875,
      "history": 3876,
      "Ġwil": 3877,
      "stairs": 3878,
      "iverse": 3879,
      "Ġbeyond": 3880,
      "Ġsection": 3881,
      "Ġliked": 3882,
      "izing": 3883,
      "known": 3884,
      "Ġgro": 3885,
      "Ġstorm": 3886,
      "Ġchat": 3887,
      "Ġloss": 3888,
      "aching": 3889,
      "Ġplayers": 3890,
      "hur": 3891,
      "Ġcars": 3892,
      "asant": 3893,
      "Ġrate": 3894,
      "Ġknowledge": 3895,
      "Ġtrip": 3896,
      "Ġpractice": 3897,
      "Ġpyrenees": 3898,
      "book": 3899,
      "Ġpig": 3900,
      "Ġcanada": 3901,
      "Ġ2020": 3902,
      "Ġ2001": 3903,
      "vi": 3904,
      "Ġthee": 3905,
      "ann": 3906,
      "Ġnation": 3907,
      "Ġforced": 3908,
      "lie": 3909,
      "ander": 3910,
      "Ġshown": 3911,
      "Ġdisp": 3912,
      "Ġtells": 3913,
      "iety": 3914,
      "Ġrab": 3915,
      "ado": 3916,
      "Ġminus": 3917,
      "ossible": 3918,
      "inese": 3919,
      "Ġsilver": 3920,
      "âĢİ.": 3921,
      "mark": 3922,
      "Ġast": 3923,
      "Ġswim": 3924,
      "Ġdirection": 3925,
      "Ġdirected": 3926,
      "Ġmemor": 3927,
      "Ġcompl": 3928,
      "Ġopening": 3929,
      "Ġlegs": 3930,
      "Ġcustom": 3931,
      "eg": 3932,
      "mend": 3933,
      "leep": 3934,
      "ification": 3935,
      "Ġnewspap": 3936,
      "Ġ..": 3937,
      "org": 3938,
      "before": 3939,
      "Ġenjoy": 3940,
      "Ġstaff": 3941,
      "Ġresour": 3942,
      "Ġthroughout": 3943,
      "Ġfemale": 3944,
      "atlantiques": 3945,
      "mit": 3946,
      "Ġreve": 3947,
      "Ġteach": 3948,
      "Ġ2018": 3949,
      "Ġkinds": 3950,
      "Ġtwice": 3951,
      "ae": 3952,
      "Ġliber": 3953,
      "Ġcrime": 3954,
      "Ġmyster": 3955,
      "Ġven": 3956,
      "Ġtex": 3957,
      "Ġformula": 3958,
      "Ġrelease": 3959,
      "anda": 3960,
      "were": 3961,
      "Ġoriginally": 3962,
      "Ġcurrently": 3963,
      "Ġfresh": 3964,
      "Ġaverage": 3965,
      "atory": 3966,
      "Ġkar": 3967,
      "Ġenter": 3968,
      "Ġpounds": 3969,
      "Ġjul": 3970,
      "oph": 3971,
      "Ġconvers": 3972,
      "hedron": 3973,
      "Ġsoldiers": 3974,
      "Ġimagine": 3975,
      "Ġhan": 3976,
      "Ġweak": 3977,
      "Ġkent": 3978,
      "Ġcarol": 3979,
      "Ġconstitution": 3980,
      "Ġpac": 3981,
      "Ġstock": 3982,
      "their": 3983,
      "Ġpatient": 3984,
      "life": 3985,
      "icated": 3986,
      "Ġsigned": 3987,
      "Ġtechnology": 3988,
      "Ġmedicine": 3989,
      "iar": 3990,
      "ube": 3991,
      "Ġsin": 3992,
      "Ġunless": 3993,
      "Ġcalls": 3994,
      "Ġrules": 3995,
      "Ġepisode": 3996,
      "Ġbon": 3997,
      "Ġcompos": 3998,
      "Ġdogs": 3999,
      "Ġinno": 4000,
      "iden": 4001,
      "Ġhasn": 4002,
      "icks": 4003,
      "enth": 4004,
      "ola": 4005,
      "Ġindustry": 4006,
      "Ġcommission": 4007,
      "Ġjoy": 4008,
      "Ġopt": 4009,
      "eds": 4010,
      "ols": 4011,
      "Ġbiggest": 4012,
      "Ġdriving": 4013,
      "isf": 4014,
      "asing": 4015,
      "Ġsymb": 4016,
      "Ġteams": 4017,
      "Ġchristmas": 4018,
      "Ġelectric": 4019,
      "Ġdollars": 4020,
      "cra": 4021,
      "part": 4022,
      "also": 4023,
      "Ġaddition": 4024,
      "Ġvictim": 4025,
      "Ġculture": 4026,
      "Ġtwelve": 4027,
      "Ġclim": 4028,
      "Ġjew": 4029,
      "ograph": 4030,
      "Ġfirm": 4031,
      "Ġopportunity": 4032,
      "rs": 4033,
      "Ġnose": 4034,
      "Ġdropped": 4035,
      "turn": 4036,
      "think": 4037,
      "Ġlots": 4038,
      "Ġwis": 4039,
      "change": 4040,
      "Ġmemory": 4041,
      "reg": 4042,
      "ulations": 4043,
      "Ġproud": 4044,
      "Ġya": 4045,
      "Ġscotland": 4046,
      "Ġsides": 4047,
      "Ġpound": 4048,
      "americ": 4049,
      ".--": 4050,
      "Ġanne": 4051,
      "Ġacqu": 4052,
      "Ġcharacters": 4053,
      "Ġbrief": 4054,
      "Ġdiscovered": 4055,
      "Ġdangerous": 4056,
      "imp": 4057,
      "ucky": 4058,
      "Ġplanet": 4059,
      "Ġreligious": 4060,
      "kins": 4061,
      "Ġhide": 4062,
      "Ġspr": 4063,
      "Ġsmell": 4064,
      "Ġsmaller": 4065,
      "run": 4066,
      "Ġlift": 4067,
      "Ġarab": 4068,
      "orses": 4069,
      "Ġelected": 4070,
      "Ġislands": 4071,
      "ipped": 4072,
      "Ġgreater": 4073,
      "ini": 4074,
      "Ġweather": 4075,
      "Ġanywhere": 4076,
      "ighs": 4077,
      "Ġsurface": 4078,
      "Ġfifty": 4079,
      "Ġperformance": 4080,
      "Ġtravel": 4081,
      "five": 4082,
      "another": 4083,
      "isters": 4084,
      "Ġque": 4085,
      "Ġsmart": 4086,
      "Ġ1980": 4087,
      "Ġcart": 4088,
      "Ġplants": 4089,
      "shit": 4090,
      "Ġdetect": 4091,
      "Ġhighest": 4092,
      "Ġmistake": 4093,
      "ores": 4094,
      "ware": 4095,
      "Ġtheat": 4096,
      "Ġmut": 4097,
      "lli": 4098,
      "Ġgrowing": 4099,
      "Ġpred": 4100,
      "Ġnotice": 4101,
      "Ġ2017": 4102,
      "Ġremain": 4103,
      "Ġentered": 4104,
      "Ġgolden": 4105,
      "Ġrisk": 4106,
      "Ġreligion": 4107,
      "die": 4108,
      "Ġcas": 4109,
      "help": 4110,
      "._": 4111,
      "nament": 4112,
      "Ġnick": 4113,
      "Ġlee": 4114,
      "Ġsports": 4115,
      "Ġprem": 4116,
      "lands": 4117,
      "Ġentertain": 4118,
      ",--": 4119,
      "Ġrange": 4120,
      "!âĢĿ": 4121,
      "Ġdun": 4122,
      "Ġuk": 4123,
      "Ġ1990": 4124,
      "boy": 4125,
      "Ġdamn": 4126,
      "ios": 4127,
      "oved": 4128,
      "Ġheat": 4129,
      "Ġacting": 4130,
      "Ġolder": 4131,
      "Ġconnect": 4132,
      "Ġlucky": 4133,
      "him": 4134,
      "isn": 4135,
      "Ġthy": 4136,
      "perhaps": 4137,
      "Ġfederal": 4138,
      "water": 4139,
      "Ġpin": 4140,
      "Ġhaw": 4141,
      "Ġstudent": 4142,
      "Ġeasily": 4143,
      "Ġacademy": 4144,
      "make": 4145,
      "Ġwine": 4146,
      "Ġchic": 4147,
      "Ġemper": 4148,
      "Ġconv": 4149,
      "Ġsund": 4150,
      "Ġfunction": 4151,
      "Ġapart": 4152,
      "Ġpositive": 4153,
      "Ġeventually": 4154,
      "gi": 4155,
      "pet": 4156,
      "Ġforty": 4157,
      "Ġuses": 4158,
      "Ġincludes": 4159,
      "Ġmissing": 4160,
      "Ġgradu": 4161,
      "sw": 4162,
      "gged": 4163,
      "Ġmicro": 4164,
      "Ġwearing": 4165,
      "Ġscreen": 4166,
      "Ġorders": 4167,
      "Ġrough": 4168,
      "Ġmagaz": 4169,
      "Ġsecretary": 4170,
      "ulf": 4171,
      "Ġconference": 4172,
      "Ġnegative": 4173,
      "Ġgrown": 4174,
      "Ġexpected": 4175,
      "Ġcatholic": 4176,
      "met": 4177,
      "Ġfashion": 4178,
      "ills": 4179,
      "Ġmission": 4180,
      "care": 4181,
      "Ġchinese": 4182,
      "Ġrevolution": 4183,
      "Ġedge": 4184,
      "remember": 4185,
      "kin": 4186,
      "pter": 4187,
      "Ġbac": 4188,
      "Ġdegree": 4189,
      "ems": 4190,
      "Ġsword": 4191,
      "Ġaunt": 4192,
      "Ġbye": 4193,
      "Ġmanager": 4194,
      "aret": 4195,
      "Ġcontribut": 4196,
      "Ġstudio": 4197,
      "host": 4198,
      "Ġcritic": 4199,
      "Ġhouses": 4200,
      "tle": 4201,
      "Ġwet": 4202,
      "ani": 4203,
      "itation": 4204,
      "istry": 4205,
      "Ġsaf": 4206,
      "Ġfinan": 4207,
      "Ġ188": 4208,
      "Ġsurr": 4209,
      "Ġdefinitely": 4210,
      "Ġcondition": 4211,
      "Ġparticularly": 4212,
      "Ġarchite": 4213,
      "want": 4214,
      "Ġthinks": 4215,
      "Ġchannel": 4216,
      "Ġremained": 4217,
      "Ġlaid": 4218,
      "Ġjournal": 4219,
      "utenant": 4220,
      "lected": 4221,
      "Ġreform": 4222,
      "Ġwhis": 4223,
      "Ġvote": 4224,
      "Ġcorrect": 4225,
      "Ġdreams": 4226,
      "Ġwitness": 4227,
      "Ġsouthwestern": 4228,
      "Ġtransl": 4229,
      "Ġparticip": 4230,
      "fficient": 4231,
      "ening": 4232,
      "Ġactress": 4233,
      "ses": 4234,
      "Ġduty": 4235,
      "mi": 4236,
      "Ġbomb": 4237,
      "Ġlack": 4238,
      "Ġhole": 4239,
      "Ġroute": 4240,
      "Ġcompanies": 4241,
      "Ġissues": 4242,
      "Ġwrest": 4243,
      "Ġthro": 4244,
      "iance": 4245,
      "Ġvictor": 4246,
      "sometimes": 4247,
      "cu": 4248,
      "gas": 4249,
      "long": 4250,
      "ishop": 4251,
      "Ġmountains": 4252,
      "Ġbroadcast": 4253,
      "Ġlouis": 4254,
      "Ġchoose": 4255,
      "Ġbless": 4256,
      "Ġlawyer": 4257,
      "Ġfrequ": 4258,
      "Ġexecut": 4259,
      "Ġfestival": 4260,
      "Ġbutter": 4261,
      "Ġcomplet": 4262,
      "Ġpretend": 4263,
      "Ġsmith": 4264,
      "Ġslowly": 4265,
      "Ġeggs": 4266,
      "Ġworried": 4267,
      "Ġfocus": 4268,
      "Ġbread": 4269,
      "Ġhonour": 4270,
      "cies": 4271,
      "Ġham": 4272,
      "Ġprovide": 4273,
      "coh": 4274,
      "viet": 4275,
      "Ġnur": 4276,
      "Ġhid": 4277,
      "Ġrat": 4278,
      "nam": 4279,
      "Ġtun": 4280,
      "Ġbound": 4281,
      "Ġprogress": 4282,
      "Ġcolour": 4283,
      "Ġmaintain": 4284,
      "Ġagreed": 4285,
      "Ġeld": 4286,
      "Ġlibr": 4287,
      "Ġfranc": 4288,
      "Ġlarger": 4289,
      "fin": 4290,
      "Ġawards": 4291,
      "Ġpak": 4292,
      "eless": 4293,
      "bered": 4294,
      "Ġzero": 4295,
      "Ġgenerally": 4296,
      "Ġtape": 4297,
      "Ġmotor": 4298,
      "Ġwedding": 4299,
      "lor": 4300,
      "Ġloud": 4301,
      "Ġatlant": 4302,
      "Ġofficers": 4303,
      "oned": 4304,
      "Ġfred": 4305,
      "Ġpil": 4306,
      "Ġgal": 4307,
      "Ġplaced": 4308,
      "Ġscr": 4309,
      "Ġbigger": 4310,
      "Ġexcuse": 4311,
      "Ġcompetition": 4312,
      "Ġsource": 4313,
      "Ġstrength": 4314,
      "Ġnap": 4315,
      "Ġ2003": 4316,
      "Ġtotally": 4317,
      "Ġwriter": 4318,
      "aling": 4319,
      "yeh": 4320,
      "Ġjustice": 4321,
      "Ġappre": 4322,
      "fortun": 4323,
      "Ġmentioned": 4324,
      "watch": 4325,
      "owa": 4326,
      "apt": 4327,
      "Ġmale": 4328,
      "Ġbreath": 4329,
      "pret": 4330,
      "Ġvot": 4331,
      "Ġtroops": 4332,
      "Ġspeech": 4333,
      "door": 4334,
      "Ġdesigned": 4335,
      "Ġindividual": 4336,
      "Ġcrowd": 4337,
      "Ġbod": 4338,
      "itar": 4339,
      "Ġwaste": 4340,
      "Ġdrunk": 4341,
      "Ġsinging": 4342,
      "Ġterrit": 4343,
      "Ġcomplex": 4344,
      "Ġdistribut": 4345,
      "Ġmajesty": 4346,
      "Ġlegal": 4347,
      "Ġaware": 4348,
      "Ġpressure": 4349,
      "hu": 4350,
      "Ġtaught": 4351,
      "Ġdyn": 4352,
      "Ġhook": 4353,
      "Ġfruit": 4354,
      "Ġairport": 4355,
      "Ġships": 4356,
      "Ġpicked": 4357,
      "during": 4358,
      "arm": 4359,
      "Ġplans": 4360,
      "igned": 4361,
      "Ġgreatest": 4362,
      "Ġforms": 4363,
      "Ġrelated": 4364,
      "Ġbasically": 4365,
      "gypt": 4366,
      "Ġtight": 4367,
      "Ġbecomes": 4368,
      "depart": 4369,
      "ties": 4370,
      "anced": 4371,
      "Ġdeb": 4372,
      "istics": 4373,
      "Ġ(,": 4374,
      "Ġchicago": 4375,
      "ita": 4376,
      "Ġshout": 4377,
      "aging": 4378,
      "Ġscream": 4379,
      "Ġpowerful": 4380,
      "Ġtypes": 4381,
      "cor": 4382,
      "last": 4383,
      "mn": 4384,
      "Ġkil": 4385,
      "Ġconcept": 4386,
      "Ġtransport": 4387,
      ";/": 4388,
      "rey": 4389,
      "Ġgir": 4390,
      "...?": 4391,
      "oses": 4392,
      "Ġserve": 4393,
      "Ġjoe": 4394,
      "Ġleading": 4395,
      "Ġreported": 4396,
      "Ġreplaced": 4397,
      "Ġconditions": 4398,
      "Ġlog": 4399,
      "Ġspain": 4400,
      "Ġkilling": 4401,
      "Ġcalm": 4402,
      "Ġcitiz": 4403,
      "Ġpair": 4404,
      "Ġrot": 4405,
      "Ġray": 4406,
      "Ġexam": 4407,
      "Ġmainly": 4408,
      "Ġcere": 4409,
      "jack": 4410,
      "yan": 4411,
      "hamm": 4412,
      "Ġgoal": 4413,
      "Ġneither": 4414,
      "Ġwilling": 4415,
      "Ġdrag": 4416,
      "Ġ2002": 4417,
      "Ġbitch": 4418,
      "Ġfeatures": 4419,
      "Ġtarget": 4420,
      "Ġkitchen": 4421,
      "laughter": 4422,
      "mad": 4423,
      "lle": 4424,
      "Ġlies": 4425,
      "Ġobviously": 4426,
      "Ġartist": 4427,
      "Ġtexas": 4428,
      "aud": 4429,
      "Ġnav": 4430,
      "Ġuniverse": 4431,
      "Ġsmile": 4432,
      "Ġpleasure": 4433,
      "Ġsubst": 4434,
      "Ġstandard": 4435,
      "Ġempty": 4436,
      "Ġorganization": 4437,
      "Ġfinger": 4438,
      "Ġquarter": 4439,
      "ju": 4440,
      "Ġeth": 4441,
      "ulous": 4442,
      "Ġrecorded": 4443,
      "Ġpapers": 4444,
      "Ġfreed": 4445,
      "Ġ2021": 4446,
      "Ġrussian": 4447,
      "Ġinfluence": 4448,
      "Ġjoseph": 4449,
      "Ġteeth": 4450,
      "Ġflying": 4451,
      "Ġdim": 4452,
      "Ġrank": 4453,
      "abs": 4454,
      "Ġsake": 4455,
      "Ġadult": 4456,
      "Ġpoet": 4457,
      "Ġperformed": 4458,
      "Ġcash": 4459,
      "Ġhorses": 4460,
      "Ġclearly": 4461,
      "Ġfilled": 4462,
      "Ġoccup": 4463,
      "Ġproperty": 4464,
      "Ġafrican": 4465,
      "Ġmanagement": 4466,
      "nice": 4467,
      "Ġmike": 4468,
      "ashed": 4469,
      "stood": 4470,
      "Ġmob": 4471,
      "Ġ1970": 4472,
      "Ġhurry": 4473,
      "Ġdefend": 4474,
      "Ġemperor": 4475,
      "phan": 4476,
      "hered": 4477,
      "Ġduck": 4478,
      "Ġmeasure": 4479,
      "Ġapplic": 4480,
      "many": 4481,
      "craft": 4482,
      "Ġdiam": 4483,
      "Ġnic": 4484,
      "Ġthick": 4485,
      "Ġstarts": 4486,
      "Ġinstr": 4487,
      "fine": 4488,
      "Ġdrew": 4489,
      "Ġstuck": 4490,
      "Ġshock": 4491,
      "Ġgrave": 4492,
      "Ġscar": 4493,
      "Ġevil": 4494,
      "Ġetc": 4495,
      "uce": 4496,
      "Ġboo": 4497,
      "Ġrare": 4498,
      "Ġcorpor": 4499,
      "ads": 4500,
      "Ġchallen": 4501,
      "Ġoffered": 4502,
      "ni": 4503,
      "Ġdescribed": 4504,
      "mes": 4505,
      "onel": 4506,
      "again": 4507,
      "Ġpartner": 4508,
      "Ġremind": 4509,
      "Ġleaders": 4510,
      "Ġfailed": 4511,
      "hon": 4512,
      "Ġreven": 4513,
      "Ġweird": 4514,
      "iano": 4515,
      "Ġprevent": 4516,
      "Ġoperation": 4517,
      "Ġjackson": 4518,
      "Ġcrying": 4519,
      "Ġmechan": 4520,
      "Ġjun": 4521,
      "olf": 4522,
      "departement": 4523,
      "Ġmeat": 4524,
      "ulty": 4525,
      "Ġunit": 4526,
      "Ġpoll": 4527,
      "Ġpoly": 4528,
      "Ġschol": 4529,
      "Ġmissed": 4530,
      "Ġpaint": 4531,
      "Ġresults": 4532,
      "tar": 4533,
      "lend": 4534,
      "christ": 4535,
      "Ġcancer": 4536,
      "Ġaged": 4537,
      "place": 4538,
      "Ġhandle": 4539,
      "Ġmetal": 4540,
      "Ġgrey": 4541,
      "Ġwake": 4542,
      "Ġfright": 4543,
      "aches": 4544,
      "uries": 4545,
      "Ġsaved": 4546,
      "Ġshape": 4547,
      "Ġreplied": 4548,
      "Ġbecoming": 4549,
      "Ġindependent": 4550,
      "40": 4551,
      "bc": 4552,
      "hum": 4553,
      "ona": 4554,
      "Ġfaces": 4555,
      "Ġprotest": 4556,
      "Ġtournament": 4557,
      "next": 4558,
      "Ġmunicipality": 4559,
      "wan": 4560,
      "isted": 4561,
      "Ġagent": 4562,
      "Ġheads": 4563,
      "Ġconcerned": 4564,
      "Ġtraditional": 4565,
      "Ġdirectly": 4566,
      "Ġgentlemen": 4567,
      "Ġsant": 4568,
      "ern": 4569,
      "Ġpure": 4570,
      "Ġgy": 4571,
      "Ġmere": 4572,
      "Ġworst": 4573,
      "Ġdarling": 4574,
      "Ġopinion": 4575,
      "rad": 4576,
      "Ġnorm": 4577,
      "Ġinterview": 4578,
      "Ġdivided": 4579,
      "Ġstructure": 4580,
      "Ġladies": 4581,
      "Ġauthority": 4582,
      "Ġtro": 4583,
      "still": 4584,
      "Ġproduce": 4585,
      "Ġwindows": 4586,
      "Ġimage": 4587,
      "bab": 4588,
      "actually": 4589,
      "Ġconstruction": 4590,
      "said": 4591,
      "Ġroof": 4592,
      "open": 4593,
      "Ġalcoh": 4594,
      "Ġdragon": 4595,
      "love": 4596,
      "Ġrealize": 4597,
      "Ġstudied": 4598,
      "Ġbreakfast": 4599,
      ";&": 4600,
      "Ġlunch": 4601,
      "Ġreasons": 4602,
      "ili": 4603,
      "Ġblind": 4604,
      "Ġeasier": 4605,
      "Ġsatisf": 4606,
      "Ġburied": 4607,
      "Ġteaching": 4608,
      "Ġpit": 4609,
      "Ġegypt": 4610,
      "Ġforever": 4611,
      "Ġstrugg": 4612,
      "Ġeconomic": 4613,
      "Ġlic": 4614,
      "rial": 4615,
      "Ġplain": 4616,
      "Ġfox": 4617,
      "Ġseconds": 4618,
      "Ġexpress": 4619,
      "Ġshoes": 4620,
      "70": 4621,
      "Ġfal": 4622,
      "Ġsoviet": 4623,
      "Ġcrim": 4624,
      "Ġconsum": 4625,
      "Ġsleeping": 4626,
      "Ġtong": 4627,
      "Ġcoo": 4628,
      "Ġweb": 4629,
      "Ġordered": 4630,
      "rences": 4631,
      "Ġcontent": 4632,
      "Ġ2019": 4633,
      "Ġdecide": 4634,
      "Ġlearning": 4635,
      "Ġfrog": 4636,
      "Ġcabin": 4637,
      "cise": 4638,
      "Ġiowa": 4639,
      "Ġghost": 4640,
      "Ġrural": 4641,
      "stra": 4642,
      "imately": 4643,
      "Ġrecently": 4644,
      "Ġcircum": 4645,
      "ux": 4646,
      "Ġbast": 4647,
      "enn": 4648,
      "Ġrome": 4649,
      "Ġjesus": 4650,
      "Ġvac": 4651,
      "Ġmayor": 4652,
      "ĠâĢĶ": 4653,
      "Ġimpossible": 4654,
      "Ġmultiple": 4655,
      "Ġtower": 4656,
      "Ġamend": 4657,
      "Ġconserv": 4658,
      "Ġruns": 4659,
      "199": 4660,
      "Ġexperien": 4661,
      "arently": 4662,
      "little": 4663,
      "rom": 4664,
      "Ġbranch": 4665,
      "mrs": 4666,
      "Ġsurprise": 4667,
      "Ġsurprised": 4668,
      "ault": 4669,
      "Ġlikes": 4670,
      "oken": 4671,
      "Ġkeeping": 4672,
      "Ġbuildings": 4673,
      "Ġgreek": 4674,
      "rain": 4675,
      "stay": 4676,
      "semb": 4677,
      "rif": 4678,
      "Ġshr": 4679,
      "Ġsilly": 4680,
      "iger": 4681,
      "today": 4682,
      "Ġgiant": 4683,
      "Ġconstant": 4684,
      "Ġsoldier": 4685,
      "Ġcamera": 4686,
      "Ġamazing": 4687,
      "Ġprepared": 4688,
      "step": 4689,
      "Ġcrown": 4690,
      "lock": 4691,
      "Ġreality": 4692,
      "ucle": 4693,
      "'.": 4694,
      "sur": 4695,
      "Ġsid": 4696,
      "Ġsaint": 4697,
      "urday": 4698,
      "Ġsequ": 4699,
      "Ġourselves": 4700,
      "Ġplanning": 4701,
      "Ġincrease": 4702,
      "60": 4703,
      "vation": 4704,
      "Ġrand": 4705,
      "ami": 4706,
      "Ġarts": 4707,
      "Ġ1999": 4708,
      "didn": 4709,
      "Ġasleep": 4710,
      "shut": 4711,
      "Ġdrinking": 4712,
      "Ġcomedy": 4713,
      "fall": 4714,
      "Ġonto": 4715,
      "Ġapple": 4716,
      "Ġbeauty": 4717,
      "Ġtaste": 4718,
      ".]": 4719,
      "25": 4720,
      "rid": 4721,
      "Ġtal": 4722,
      "aye": 4723,
      "cles": 4724,
      "Ġcrack": 4725,
      "Ġminor": 4726,
      "Ġcosts": 4727,
      "Ġlabor": 4728,
      "Ġappreci": 4729,
      "master": 4730,
      "Ġmap": 4731,
      "Ġpocket": 4732,
      "uckles": 4733,
      "Ġlaws": 4734,
      "Ġpromised": 4735,
      "gil": 4736,
      "Ġmate": 4737,
      "Ġroll": 4738,
      "Ġqual": 4739,
      "umber": 4740,
      "Ġgrass": 4741,
      "Ġrequest": 4742,
      "Ġmexico": 4743,
      "Ġfrancis": 4744,
      "Ġhungry": 4745,
      "isl": 4746,
      "Ġdemon": 4747,
      "...\"": 4748,
      "aks": 4749,
      "Ġactual": 4750,
      "Ġjourney": 4751,
      "rer": 4752,
      "Ġmas": 4753,
      "Ġlion": 4754,
      "Ġprove": 4755,
      "Ġlights": 4756,
      "Ġdrug": 4757,
      "Ġfinancial": 4758,
      "pol": 4759,
      "Ġexcl": 4760,
      "asty": 4761,
      "Ġadvent": 4762,
      "ansas": 4763,
      "clock": 4764,
      "Ġturns": 4765,
      "Ġmagazine": 4766,
      "Ġthroat": 4767,
      "big": 4768,
      "oy": 4769,
      "pic": 4770,
      "eration": 4771,
      "Ġram": 4772,
      "ima": 4773,
      "thr": 4774,
      "Ġmusical": 4775,
      "Ġlanguages": 4776,
      "Ġcopy": 4777,
      "Ġrang": 4778,
      "gend": 4779,
      "Ġcrick": 4780,
      "Ġbelief": 4781,
      "Ġtony": 4782,
      "Ġprograms": 4783,
      "Ġcircle": 4784,
      "Ġseparate": 4785,
      "ĠÂ": 4786,
      "Ġcub": 4787,
      "igan": 4788,
      "lom": 4789,
      "lied": 4790,
      "heart": 4791,
      "Ġna": 4792,
      "Ġremem": 4793,
      "Ġsucceed": 4794,
      "Ġfavour": 4795,
      "Ġphysical": 4796,
      "Ġfavorite": 4797,
      "Ġsplit": 4798,
      "lar": 4799,
      "sed": 4800,
      "Ġvice": 4801,
      "Ġchocol": 4802,
      "Ġ31": 4803,
      "Ġdelight": 4804,
      "Ġdebut": 4805,
      "Ġmanu": 4806,
      "Ġloves": 4807,
      "Ġafterwards": 4808,
      "Ġsyn": 4809,
      "azz": 4810,
      "Ġstayed": 4811,
      "ette": 4812,
      "Ġactive": 4813,
      "Ġmont": 4814,
      "Ġstudies": 4815,
      "everybody": 4816,
      "Ġlistening": 4817,
      "sch": 4818,
      "Ġax": 4819,
      "Ġaltern": 4820,
      "Ġunits": 4821,
      "Ġprevious": 4822,
      "happy": 4823,
      "Ġrow": 4824,
      "Ġrum": 4825,
      "antic": 4826,
      "Ġscrew": 4827,
      "Ġfifth": 4828,
      "Ġsuspect": 4829,
      "oe": 4830,
      "rick": 4831,
      "try": 4832,
      "oul": 4833,
      "Ġgay": 4834,
      "Ġwheel": 4835,
      "ardon": 4836,
      "Ġcla": 4837,
      "Ġcolon": 4838,
      "Ġ1960": 4839,
      "Ġninet": 4840,
      "va": 4841,
      "Ġted": 4842,
      "Ġsom": 4843,
      "Ġdirty": 4844,
      "aning": 4845,
      "Ġthrew": 4846,
      "urance": 4847,
      "whoa": 4848,
      "Ġpattern": 4849,
      "Ġadmir": 4850,
      "Ġsafety": 4851,
      "Ġears": 4852,
      "Ġencour": 4853,
      "Ġholy": 4854,
      "Ġprior": 4855,
      "Ġpossibly": 4856,
      "fire": 4857,
      "Ġreact": 4858,
      "Ġstream": 4859,
      "Ġash": 4860,
      "Ġshore": 4861,
      "Ġextend": 4862,
      "awa": 4863,
      "Ġcheap": 4864,
      "gor": 4865,
      "woman": 4866,
      "oring": 4867,
      "ordin": 4868,
      "Ġ--&": 4869,
      "Ġlieutenant": 4870,
      "Ġlaughing": 4871,
      "Ġangeles": 4872,
      "jan": 4873,
      "nic": 4874,
      "san": 4875,
      "Ġfis": 4876,
      "kend": 4877,
      "bey": 4878,
      "Ġhumans": 4879,
      "Ġneighbor": 4880,
      "Ġappointed": 4881,
      "Ġsunday": 4882,
      "bow": 4883,
      "Ġstreets": 4884,
      "sub": 4885,
      "Ġmort": 4886,
      "Ġdare": 4887,
      "Ġbrave": 4888,
      "Ġsharp": 4889,
      "Ġsignificant": 4890,
      "Ġjail": 4891,
      "oking": 4892,
      "Ġshad": 4893,
      "anyway": 4894,
      "Ġrocks": 4895,
      "Ġrequired": 4896,
      "Ġcandid": 4897,
      "Ġbother": 4898,
      "Ġislam": 4899,
      "whatever": 4900,
      "Ġmanaged": 4901,
      "onds": 4902,
      "Ġpope": 4903,
      "80": 4904,
      "Ġbub": 4905,
      "Ġfan": 4906,
      "Ġplane": 4907,
      "Ġsmoke": 4908,
      "nedy": 4909,
      "Ġdemocratic": 4910,
      "vis": 4911,
      "oured": 4912,
      "Ġinstru": 4913,
      "Ġdevil": 4914,
      "Ġstruck": 4915,
      "23": 4916,
      "Ġodd": 4917,
      "Ġrh": 4918,
      "Ġtransfer": 4919,
      "Ġcommander": 4920,
      "too": 4921,
      "Ġgang": 4922,
      "asy": 4923,
      "Ġwash": 4924,
      "adian": 4925,
      "Ġdrama": 4926,
      "looking": 4927,
      "Ġtrial": 4928,
      "Ġtreatment": 4929,
      "rison": 4930,
      "Ġexhib": 4931,
      "ivity": 4932,
      "icked": 4933,
      "Ġlocation": 4934,
      "shall": 4935,
      "rb": 4936,
      "Ġorche": 4937,
      "Ġscore": 4938,
      "Ġjobs": 4939,
      "Ġfalling": 4940,
      "Ġlibrary": 4941,
      "ota": 4942,
      "Ġfinding": 4943,
      "Ġupper": 4944,
      "ctors": 4945,
      "quar": 4946,
      "Ġfalls": 4947,
      "Ġlosing": 4948,
      "Ġmanufact": 4949,
      "lies": 4950,
      "Ġcous": 4951,
      "Ġstret": 4952,
      "Ġassemb": 4953,
      "rie": 4954,
      "Ġquality": 4955,
      "Ġturning": 4956,
      "going": 4957,
      "Ġhardly": 4958,
      "Ġinn": 4959,
      "rol": 4960,
      "nee": 4961,
      "Ġfeels": 4962,
      "Ġappears": 4963,
      "Ġindiana": 4964,
      "Ġdestroyed": 4965,
      "Ġsymbol": 4966,
      "ora": 4967,
      "Ġhast": 4968,
      "Ġrent": 4969,
      "yep": 4970,
      "Ġrequire": 4971,
      "Ġfant": 4972,
      "Ġhorn": 4973,
      "lection": 4974,
      "ushing": 4975,
      "Ġexcell": 4976,
      "Ġ1996": 4977,
      "Ġlimited": 4978,
      "Ġintroduced": 4979,
      "american": 4980,
      "dan": 4981,
      "lu": 4982,
      "lis": 4983,
      "Ġfought": 4984,
      "Ġnucle": 4985,
      "Ġkoh": 4986,
      "Ġworkers": 4987,
      "Ġscen": 4988,
      "Ġrelative": 4989,
      "Ġeh": 4990,
      "Ġconvent": 4991,
      "Ġclock": 4992,
      "24": 4993,
      "Ġbul": 4994,
      "geant": 4995,
      "Ġsaturday": 4996,
      "Ġdaily": 4997,
      ",'": 4998,
      "ias": 4999,
      "orrow": 5000,
      "leave": 5001,
      "Ġrise": 5002,
      "osen": 5003,
      "Ġrecent": 5004,
      "coming": 5005,
      "Ġdrugs": 5006,
      "Ġresponsible": 5007,
      "Ġves": 5008,
      "Ġamericans": 5009,
      "certain": 5010,
      "Ġaccepted": 5011,
      "Ġimprove": 5012,
      "pha": 5013,
      "Ġtiny": 5014,
      "Ġpic": 5015,
      "Ġtoward": 5016,
      "Ġinha": 5017,
      "aland": 5018,
      "rier": 5019,
      "Ġgoods": 5020,
      "Ġharm": 5021,
      "Ġshowing": 5022,
      "Ġmatters": 5023,
      "Ġstatement": 5024,
      "Ġslightly": 5025,
      "Ġknight": 5026,
      "Ġmeas": 5027,
      "Ġhadn": 5028,
      "Ġflow": 5029,
      "Ġremark": 5030,
      "Ġhelping": 5031,
      "Ġbasketball": 5032,
      "Ġinstitute": 5033,
      "six": 5034,
      "Ġgate": 5035,
      "vey": 5036,
      "tery": 5037,
      "Ġcoat": 5038,
      "Ġflu": 5039,
      "Ġ1998": 5040,
      "Ġvehic": 5041,
      "Ġdressed": 5042,
      "aughed": 5043,
      "ache": 5044,
      "theast": 5045,
      "Ġretired": 5046,
      "Ġsteel": 5047,
      "Ġadvant": 5048,
      "Ġwalls": 5049,
      "Ġthousands": 5050,
      "Ġaudience": 5051,
      "Ġintellig": 5052,
      "eared": 5053,
      "mu": 5054,
      "sar": 5055,
      "icide": 5056,
      "them": 5057,
      "Ġcomplic": 5058,
      "achus": 5059,
      "Ġflag": 5060,
      "Ġ1997": 5061,
      "Ġyounger": 5062,
      "Ġ60": 5063,
      "Ġfixed": 5064,
      "Ġcredit": 5065,
      "Ġdomin": 5066,
      "Ġheight": 5067,
      "fection": 5068,
      "Ġpleased": 5069,
      "Ġoccasion": 5070,
      "Ġtemperature": 5071,
      "Ġchicken": 5072,
      "Ġwars": 5073,
      "itan": 5074,
      "Ġapproach": 5075,
      "Ġbottle": 5076,
      "Ġproducts": 5077,
      "\"?": 5078,
      "sen": 5079,
      "Ġnom": 5080,
      "however": 5081,
      "Ġ185": 5082,
      "Ġsilence": 5083,
      "Ġrapid": 5084,
      "inst": 5085,
      "Ġga": 5086,
      "imum": 5087,
      "uments": 5088,
      "Ġorange": 5089,
      "Ġunif": 5090,
      "Ġends": 5091,
      "Ġpolitics": 5092,
      "Ġguns": 5093,
      "both": 5094,
      "gers": 5095,
      "hr": 5096,
      "Ġwave": 5097,
      "unting": 5098,
      "iana": 5099,
      "Ġdrum": 5100,
      "Ġillust": 5101,
      "orter": 5102,
      "Ġfriday": 5103,
      "Ġlands": 5104,
      "Ġduke": 5105,
      "Ġdocument": 5106,
      "Ġcards": 5107,
      "resp": 5108,
      "Ġadvice": 5109,
      "norm": 5110,
      "asc": 5111,
      "chief": 5112,
      "Ġsteps": 5113,
      "person": 5114,
      "Ġcoal": 5115,
      "Ġadop": 5116,
      "Ġnumer": 5117,
      "Ġbasic": 5118,
      "Ġswear": 5119,
      "ker": 5120,
      "pes": 5121,
      "rate": 5122,
      "hang": 5123,
      "Ġvictory": 5124,
      "Ġsweetie": 5125,
      "Ġcollection": 5126,
      "Ġgentleman": 5127,
      "stein": 5128,
      "hem": 5129,
      "Ġpowers": 5130,
      "amin": 5131,
      "Ġsugar": 5132,
      "Ġtrail": 5133,
      "Ġproceed": 5134,
      "Ġsport": 5135,
      "Ġeverywhere": 5136,
      "atherine": 5137,
      "Ġfreedom": 5138,
      "ko": 5139,
      "mary": 5140,
      "uous": 5141,
      "Ġath": 5142,
      "Ġjac": 5143,
      "Ġnoticed": 5144,
      "abor": 5145,
      "Ġflower": 5146,
      "Ġprefer": 5147,
      "Ġcontinues": 5148,
      "Ġmagic": 5149,
      "Ġcirc": 5150,
      "Ġchemical": 5151,
      "Ġbare": 5152,
      "Ġdying": 5153,
      "Ġlaughed": 5154,
      "Ġdisplay": 5155,
      "Ġpulled": 5156,
      "Ġrepublican": 5157,
      "Ġbishop": 5158,
      "Ġded": 5159,
      "ading": 5160,
      "Ġasia": 5161,
      "Ġremains": 5162,
      "Ġweekend": 5163,
      "someone": 5164,
      "Ġdefeated": 5165,
      "Ġfingers": 5166,
      "Ġresources": 5167,
      "Ġchocolate": 5168,
      "21": 5169,
      "Ġhind": 5170,
      "utions": 5171,
      "Ġarrange": 5172,
      "jim": 5173,
      "idents": 5174,
      "ilty": 5175,
      "Ġenc": 5176,
      "ysis": 5177,
      "Ġsolution": 5178,
      "Ġbudget": 5179,
      "daddy": 5180,
      "music": 5181,
      "Ġtheatre": 5182,
      "mond": 5183,
      "onse": 5184,
      "Ġfaster": 5185,
      "Ġcomment": 5186,
      "Ġsale": 5187,
      "nobody": 5188,
      "Ġelement": 5189,
      "Ġmajority": 5190,
      "Ġscottish": 5191,
      "jud": 5192,
      "ros": 5193,
      "Ġknowing": 5194,
      "Ġcanadian": 5195,
      "Ġsupre": 5196,
      "Ġplate": 5197,
      "Ġrecom": 5198,
      "Ġmedal": 5199,
      "sels": 5200,
      "Ġcounter": 5201,
      "point": 5202,
      "hammad": 5203,
      "rated": 5204,
      "Ġsli": 5205,
      "Ġmam": 5206,
      "Ġpow": 5207,
      "etts": 5208,
      "irk": 5209,
      "Ġdelic": 5210,
      "Ġkiller": 5211,
      "Ġnorthwest": 5212,
      "Ġrestaur": 5213,
      "Ġraise": 5214,
      "everyone": 5215,
      "Ġscale": 5216,
      "uyeh": 5217,
      "Ġstro": 5218,
      "rose": 5219,
      "ching": 5220,
      "Ġmatches": 5221,
      "looks": 5222,
      "Ġconfir": 5223,
      "Ġpropos": 5224,
      "Ġrussia": 5225,
      "Ġnewspaper": 5226,
      "Ġbodies": 5227,
      "hall": 5228,
      "anne": 5229,
      "Ġjane": 5230,
      "cend": 5231,
      "--\"": 5232,
      "show": 5233,
      "Ġdram": 5234,
      "Ġassum": 5235,
      "flict": 5236,
      "Ġdetails": 5237,
      "Ġtemple": 5238,
      "Ġprotection": 5239,
      "Ġlatin": 5240,
      "Ġcloser": 5241,
      "Ġeffort": 5242,
      "ost": 5243,
      "Ġcateg": 5244,
      "thur": 5245,
      "Ġcarbon": 5246,
      "Ġremoved": 5247,
      "Ġ187": 5248,
      "Ġswitch": 5249,
      "Ġopposite": 5250,
      "ckey": 5251,
      "sighs": 5252,
      "star": 5253,
      "Ġult": 5254,
      "cel": 5255,
      "Ġliqu": 5256,
      "Ġlegend": 5257,
      "Ġcloud": 5258,
      "Ġcauses": 5259,
      "although": 5260,
      "Ġbritain": 5261,
      "laughs": 5262,
      "Ġceremon": 5263,
      "ez": 5264,
      "Ġire": 5265,
      "Ġusual": 5266,
      "Ġafford": 5267,
      "Ġmetro": 5268,
      "apped": 5269,
      "Ġreceive": 5270,
      "Ġshooting": 5271,
      "ylvan": 5272,
      "Ġmi": 5273,
      "arian": 5274,
      "lying": 5275,
      "erman": 5276,
      "Ġjoke": 5277,
      "Ġmuslim": 5278,
      "Ġdamage": 5279,
      "Ġdutch": 5280,
      "Ġalcohol": 5281,
      "dro": 5282,
      "dess": 5283,
      "pop": 5284,
      "pers": 5285,
      "aming": 5286,
      "Ġshel": 5287,
      "Ġmanner": 5288,
      "Ġattacked": 5289,
      "Ġautom": 5290,
      "Ġfired": 5291,
      "Ġdiet": 5292,
      "Ġawful": 5293,
      "Ġconnected": 5294,
      "Ġkennedy": 5295,
      "Ġknife": 5296,
      "Ġmail": 5297,
      "Ġnavy": 5298,
      "oma": 5299,
      "Ġsees": 5300,
      "ĠâĢĺ": 5301,
      "Ġbush": 5302,
      "Ġ1994": 5303,
      "Ġprovided": 5304,
      "Ġcompleted": 5305,
      "sim": 5306,
      "Ġgain": 5307,
      "Ġug": 5308,
      "Ġlips": 5309,
      "osh": 5310,
      "anything": 5311,
      "Ġbringing": 5312,
      "Ġsettled": 5313,
      "Ġentirely": 5314,
      "Ġstatus": 5315,
      "achusetts": 5316,
      "gate": 5317,
      "lig": 5318,
      "Ġspoken": 5319,
      "Ġswed": 5320,
      "Ġhighly": 5321,
      "Ġavoid": 5322,
      "prof": 5323,
      "Ġtradition": 5324,
      "Ġforgotten": 5325,
      "bra": 5326,
      "hot": 5327,
      "vad": 5328,
      "Ġ1995": 5329,
      "Ġsenate": 5330,
      "cur": 5331,
      "uals": 5332,
      "Ġwings": 5333,
      "onia": 5334,
      "inger": 5335,
      "Ġhal": 5336,
      "Ġanx": 5337,
      "ception": 5338,
      "Ġexpensive": 5339,
      "cre": 5340,
      "lad": 5341,
      "Ġresist": 5342,
      "ricult": 5343,
      "Ġcalcul": 5344,
      "Ġwinning": 5345,
      "Ġchampion": 5346,
      "Ġrecommend": 5347,
      "wa": 5348,
      "inter": 5349,
      "Ġmich": 5350,
      "stone": 5351,
      "lyn": 5352,
      "Ġsav": 5353,
      "emic": 5354,
      "Ġcontains": 5355,
      "Ġdesire": 5356,
      "Ġfeelings": 5357,
      "Ġuseful": 5358,
      "Ġsalt": 5359,
      "james": 5360,
      "pres": 5361,
      "Ġing": 5362,
      "ett": 5363,
      "Ġability": 5364,
      "Ġexer": 5365,
      "Ġcock": 5366,
      "Ġguilty": 5367,
      "Ġchest": 5368,
      "Ġdaniel": 5369,
      "Ġactivity": 5370,
      "Ġtough": 5371,
      "Ġaim": 5372,
      "erved": 5373,
      "ingu": 5374,
      "Ġpill": 5375,
      "enced": 5376,
      "ira": 5377,
      "Ġtrick": 5378,
      "agan": 5379,
      "Ġsomewhat": 5380,
      "izes": 5381,
      "note": 5382,
      "Ġinternet": 5383,
      "ĠĠĠĠĠĠĠĠĠĠĠĠĠĠĠĠ": 5384,
      "Ġcommercial": 5385,
      "29": 5386,
      "Ġtang": 5387,
      "Ġnoise": 5388,
      "Ġchain": 5389,
      "Ġindic": 5390,
      "ylvania": 5391,
      "pat": 5392,
      "Ġot": 5393,
      "Ġowned": 5394,
      "Ġvari": 5395,
      "Ġconversation": 5396,
      "Ġdepart": 5397,
      "Ġsignal": 5398,
      "Ġlegisl": 5399,
      "Ġdiscip": 5400,
      "Ġjimmy": 5401,
      "mart": 5402,
      "rance": 5403,
      "Ġdip": 5404,
      "Ġpink": 5405,
      "olved": 5406,
      "Ġconstru": 5407,
      "Ġballs": 5408,
      "Ġchairman": 5409,
      "Ġbowl": 5410,
      "Ġextremely": 5411,
      "Ġpakistan": 5412,
      "Ġcooper": 5413,
      "Ġlit": 5414,
      "Ġnerv": 5415,
      "Ġkings": 5416,
      "ila": 5417,
      "umn": 5418,
      "Ġproof": 5419,
      "Ġmassachusetts": 5420,
      "Ġsexual": 5421,
      "Ġachieve": 5422,
      "Ġtongue": 5423,
      "Ġsab": 5424,
      "tained": 5425,
      "Ġpresence": 5426,
      "Ġgods": 5427,
      "brother": 5428,
      "such": 5429,
      "Ġbenefit": 5430,
      "mont": 5431,
      "Ã¦": 5432,
      "Ġpartners": 5433,
      "Ġcarter": 5434,
      "Ġnineteen": 5435,
      "ige": 5436,
      "Ġtap": 5437,
      "Ġquit": 5438,
      "standing": 5439,
      "exactly": 5440,
      "Ġescap": 5441,
      "Ġeffects": 5442,
      "Ġhanging": 5443,
      "Ġaustralian": 5444,
      "Ġdraft": 5445,
      "wers": 5446,
      "Ġnotes": 5447,
      "Ġshirt": 5448,
      "Ġparties": 5449,
      "Ġearn": 5450,
      "Ġdancing": 5451,
      "ben": 5452,
      "Ġtan": 5453,
      "Ġlone": 5454,
      "Ġgift": 5455,
      "Ġtears": 5456,
      "Ġpra": 5457,
      "Ġ35": 5458,
      "move": 5459,
      "Ġconsist": 5460,
      "Ġhighway": 5461,
      "Ġflew": 5462,
      "Ġarticle": 5463,
      "enger": 5464,
      "rob": 5465,
      "abeth": 5466,
      "Ġupset": 5467,
      "Ġclimate": 5468,
      "Ġotherwise": 5469,
      "box": 5470,
      "ronic": 5471,
      "Ġplanned": 5472,
      "Ġfully": 5473,
      "Ġadvance": 5474,
      "Ġawarded": 5475,
      "Ġsuggested": 5476,
      "Ġtraffic": 5477,
      "through": 5478,
      "Ġsupreme": 5479,
      "acle": 5480,
      "Ġquant": 5481,
      "Ġresc": 5482,
      "Ġexpand": 5483,
      "Ġsenior": 5484,
      "Ġhistorical": 5485,
      "27": 5486,
      "Ġtam": 5487,
      "Ġcream": 5488,
      "Ġmanip": 5489,
      "Ġspin": 5490,
      "Ġcontr": 5491,
      "Ġkeeps": 5492,
      "Ġpassing": 5493,
      "Ġdetail": 5494,
      "Ġvirt": 5495,
      "porary": 5496,
      "Ġolympics": 5497,
      "Ġterritory": 5498,
      "Ġcircumst": 5499,
      "Ġnomin": 5500,
      "Ġthin": 5501,
      "Ġjam": 5502,
      "Ġhelps": 5503,
      "Ġoperations": 5504,
      "Ġteachers": 5505,
      "itzer": 5506,
      "din": 5507,
      "Ġkal": 5508,
      "Ġdoors": 5509,
      "unched": 5510,
      "class": 5511,
      "Ġhockey": 5512,
      "Ġ1992": 5513,
      "Ġdeput": 5514,
      "Ġdriver": 5515,
      "fortunately": 5516,
      "28": 5517,
      "pass": 5518,
      "yo": 5519,
      "real": 5520,
      "Ġnations": 5521,
      "Ġbeer": 5522,
      "Ġupstairs": 5523,
      "Ġgrab": 5524,
      "Ġblank": 5525,
      "Ġimper": 5526,
      "Ġcheese": 5527,
      "ricane": 5528,
      "Ġapolog": 5529,
      "trans": 5530,
      "Ġdrawing": 5531,
      "Ġbullet": 5532,
      "ox": 5533,
      "rat": 5534,
      "ndy": 5535,
      "omen": 5536,
      "Ġwebs": 5537,
      "Ġstations": 5538,
      "Ġsole": 5539,
      "Ġchosen": 5540,
      "lfriend": 5541,
      "grand": 5542,
      "Ġsteam": 5543,
      "Ġneighbour": 5544,
      "early": 5545,
      "Ġpunish": 5546,
      "Ġmichigan": 5547,
      "isy": 5548,
      "Ġkitt": 5549,
      "Ġagricult": 5550,
      "Ġmaria": 5551,
      "Ġwrit": 5552,
      "Ġunderstood": 5553,
      "Ġterror": 5554,
      "speaking": 5555,
      "kespe": 5556,
      "nis": 5557,
      "Ġcot": 5558,
      "eding": 5559,
      "Ġthor": 5560,
      "Ġate": 5561,
      "Ġmyth": 5562,
      "Ġexpression": 5563,
      "Ġdiag": 5564,
      "according": 5565,
      "Ġcarolina": 5566,
      ".)": 5567,
      "fred": 5568,
      "km": 5569,
      "Ġtha": 5570,
      "Ġsust": 5571,
      "Ġwid": 5572,
      "Ġnan": 5573,
      "Ġhans": 5574,
      "Ġkhan": 5575,
      "Ġscri": 5576,
      "Ġartists": 5577,
      "kespeare": 5578,
      "tic": 5579,
      "Ġcu": 5580,
      "Ġped": 5581,
      "Ġpiano": 5582,
      "verse": 5583,
      "Ġbutton": 5584,
      "text": 5585,
      "Ġjoint": 5586,
      "Ġsubs": 5587,
      "Ġ1991": 5588,
      "Ġhearing": 5589,
      "Ġadmit": 5590,
      "Ġconnection": 5591,
      "Ġdust": 5592,
      "Ġforgive": 5593,
      "Ġunderstanding": 5594,
      "Ġwatched": 5595,
      "Ġoccurred": 5596,
      "Ġchallenge": 5597,
      "giluyeh": 5598,
      "Ġkohgiluyeh": 5599,
      "Ġloose": 5600,
      "Ġren": 5601,
      "Ġconcent": 5602,
      "estic": 5603,
      "Ġregional": 5604,
      "Ġcarefully": 5605,
      "Ġsigns": 5606,
      "Ġpresented": 5607,
      "Ġrepresented": 5608,
      "Ġperfectly": 5609,
      "Ġstrike": 5610,
      "Ġappearance": 5611,
      "Ġsheep": 5612,
      "Ġtru": 5613,
      "Ġunique": 5614,
      "together": 5615,
      "Ġshoulder": 5616,
      "Ġbreaking": 5617,
      "Ġ1993": 5618,
      "Ġmotion": 5619,
      "Ġninety": 5620,
      "welcome": 5621,
      "captain": 5622,
      "Ġphilosophy": 5623,
      "ti": 5624,
      "Ġheav": 5625,
      "etch": 5626,
      "Ġreaction": 5627,
      "rible": 5628,
      "ulate": 5629,
      "Ġadvert": 5630,
      "Ġimpact": 5631,
      "Ġtransform": 5632,
      "Ġvariety": 5633,
      "Ġgrowth": 5634,
      "Ġexcited": 5635,
      "Ġtask": 5636,
      "eman": 5637,
      "inda": 5638,
      "Ġbraz": 5639,
      "Ġboston": 5640,
      "Ġsche": 5641,
      "bridge": 5642,
      "Ġcolonel": 5643,
      "Ġkidding": 5644,
      "Ġjeff": 5645,
      "ipping": 5646,
      "Ġholiday": 5647,
      "Ġprimary": 5648,
      "Ġnormally": 5649,
      "Ġsamp": 5650,
      "Ġdish": 5651,
      "Ġstated": 5652,
      "Ġsevere": 5653,
      "Ġdivor": 5654,
      "ropri": 5655,
      "Ġincreased": 5656,
      "Ġmixed": 5657,
      "Ġpacific": 5658,
      "Ġcitizens": 5659,
      "Ġuniform": 5660,
      "lord": 5661,
      "Ġger": 5662,
      "Ġnaz": 5663,
      "Ġstor": 5664,
      "aki": 5665,
      "Ġblame": 5666,
      "Ġguitar": 5667,
      "Ġcontain": 5668,
      "angle": 5669,
      "Ġowner": 5670,
      "Ġpurcha": 5671,
      "Ġbeside": 5672,
      "ds": 5673,
      "Ġshared": 5674,
      "Ġfold": 5675,
      "Ġgeorg": 5676,
      "Ġfailure": 5677,
      "Ġscientists": 5678,
      "Ġinnocent": 5679,
      "gency": 5680,
      "pot": 5681,
      "Ġspect": 5682,
      "icted": 5683,
      "Ġohio": 5684,
      "Ġresponse": 5685,
      "Ġapprox": 5686,
      "Ġhills": 5687,
      "Ġagreement": 5688,
      "cop": 5689,
      "los": 5690,
      "rich": 5691,
      "wide": 5692,
      "Ġfurn": 5693,
      "Ġpha": 5694,
      "Ġkansas": 5695,
      "Ġbride": 5696,
      "Ġinsurance": 5697,
      "inson": 5698,
      "Ġstaying": 5699,
      "Ġbasis": 5700,
      "Ġclasses": 5701,
      "Ġspeaker": 5702,
      "Ġsilent": 5703,
      "Ġbillion": 5704,
      "Ġdrove": 5705,
      "Ġadvantage": 5706,
      "gle": 5707,
      "tim": 5708,
      "Ġwo": 5709,
      "Ġbun": 5710,
      "Ġonline": 5711,
      "allow": 5712,
      "Ġvia": 5713,
      "def": 5714,
      "Ġchanging": 5715,
      "Ġcolumb": 5716,
      "nsylvania": 5717,
      "Ġfigures": 5718,
      "\").": 5719,
      "Ġhiding": 5720,
      "Ġgrace": 5721,
      "Ġinstance": 5722,
      "Ġpassion": 5723,
      "197": 5724,
      "Ġfilms": 5725,
      "Ġfields": 5726,
      "Ġdeclared": 5727,
      "addons": 5728,
      "Ġnarrow": 5729,
      "_.": 5730,
      "fa": 5731,
      "Ġthri": 5732,
      "Ġstom": 5733,
      "essed": 5734,
      "Ġplenty": 5735,
      "Ġagency": 5736,
      "Ġpoison": 5737,
      "Ġcricket": 5738,
      "Ġremembered": 5739,
      "jesus": 5740,
      "ito": 5741,
      "Ġadam": 5742,
      "Ġ45": 5743,
      "Ġproducer": 5744,
      "Ġfallen": 5745,
      "works": 5746,
      "Ġliterature": 5747,
      "Ġentertainment": 5748,
      "hor": 5749,
      "Ġasian": 5750,
      "child": 5751,
      "weet": 5752,
      "oln": 5753,
      "198": 5754,
      "without": 5755,
      "Ġanti": 5756,
      "Ġviolence": 5757,
      "Ġcousin": 5758,
      "Ġaven": 5759,
      "Ġlt": 5760,
      "urt": 5761,
      "Ġgray": 5762,
      "Ġsched": 5763,
      "ropical": 5764,
      "Ġsettlement": 5765,
      "Ġcarrying": 5766,
      "Ġmartin": 5767,
      "michael": 5768,
      "fam": 5769,
      "kill": 5770,
      "Ġatom": 5771,
      "Ġfran": 5772,
      "Ġexchange": 5773,
      "Ġsomehow": 5774,
      "Ġgram": 5775,
      "Ġlatter": 5776,
      "Ġcomfortable": 5777,
      "Ġdespite": 5778,
      "Ġrabbit": 5779,
      "Ġireland": 5780,
      "Ġay": 5781,
      "Ġsed": 5782,
      "Ġmond": 5783,
      "Ġpreviously": 5784,
      "Ġshame": 5785,
      "Ġmaz": 5786,
      "Ġ70": 5787,
      "Ġconfed": 5788,
      "arrass": 5789,
      "Ġassociated": 5790,
      "bly": 5791,
      "bury": 5792,
      "Ġcig": 5793,
      "Ġrhy": 5794,
      "Ġseasons": 5795,
      "ctures": 5796,
      "Ġsergeant": 5797,
      "Ġpriest": 5798,
      "Ġslept": 5799,
      "Ġdeliver": 5800,
      "Ġopera": 5801,
      "Ġsolid": 5802,
      "worth": 5803,
      "Ġindependence": 5804,
      "Ġadministration": 5805,
      "hurry": 5806,
      "rical": 5807,
      "sal": 5808,
      "Ġwise": 5809,
      "Ġfol": 5810,
      "Ġconqu": 5811,
      "Ġexperiment": 5812,
      "Ġlabour": 5813,
      "Ġbastard": 5814,
      "rant": 5815,
      "Ġaspect": 5816,
      "Ġconflict": 5817,
      "Ġbrook": 5818,
      "rael": 5819,
      "Ġthoughts": 5820,
      "Ġeliz": 5821,
      "Ġinvited": 5822,
      "Ġpennsylvania": 5823,
      "Ġproposed": 5824,
      "22": 5825,
      "35": 5826,
      "girl": 5827,
      "Ġkat": 5828,
      "Ġanth": 5829,
      "Ġunlike": 5830,
      "Ġgraph": 5831,
      "Ġpete": 5832,
      "Ġsales": 5833,
      "Ġbrazil": 5834,
      "based": 5835,
      "Ġtied": 5836,
      "Ġais": 5837,
      "Ġfolk": 5838,
      "sex": 5839,
      "Ġyo": 5840,
      "Ġsixty": 5841,
      "Ġmagn": 5842,
      "burgh": 5843,
      "Ġjersey": 5844,
      "Ġmaterials": 5845,
      "Ġscientific": 5846,
      "Ġkentucky": 5847,
      "Ġmile": 5848,
      "entially": 5849,
      "Ġguest": 5850,
      "Ġfollows": 5851,
      "Ġgrandma": 5852,
      "Ġ1950": 5853,
      "Ġsupported": 5854,
      "Ġrespond": 5855,
      "Ġfifteen": 5856,
      "Ġcaptured": 5857,
      "34": 5858,
      "Ġtie": 5859,
      "Ġsons": 5860,
      "erves": 5861,
      "otic": 5862,
      "frank": 5863,
      "Ġsquared": 5864,
      "Ġtommy": 5865,
      "paul": 5866,
      "Ġgirlfriend": 5867,
      "Ġinhabit": 5868,
      "Ġnervous": 5869,
      "lot": 5870,
      "Ġwitch": 5871,
      "Ġiii": 5872,
      "Ġroles": 5873,
      "Ġselling": 5874,
      "Ġneare": 5875,
      "Ġchose": 5876,
      "Ġdesper": 5877,
      "chester": 5878,
      "Ġ90": 5879,
      "prob": 5880,
      "Ġeconomy": 5881,
      "Ġbaseball": 5882,
      "Ġdestroy": 5883,
      "Ġarrested": 5884,
      "bus": 5885,
      "bad": 5886,
      "bled": 5887,
      "made": 5888,
      "Ġcake": 5889,
      "Ġfame": 5890,
      "Ġviet": 5891,
      "Ġbutt": 5892,
      "Ġsuffe": 5893,
      "Ġcontest": 5894,
      "Ġdesert": 5895,
      "Ġdistinct": 5896,
      "Ġsetting": 5897,
      "Ġpaying": 5898,
      "Ġorganis": 5899,
      "Ġconcert": 5900,
      "Ġdrawn": 5901,
      "dri": 5902,
      "kind": 5903,
      "Ġdor": 5904,
      "Ġross": 5905,
      "Ġstad": 5906,
      "aine": 5907,
      "aka": 5908,
      "Ġseek": 5909,
      "Ġsupply": 5910,
      "Ġrelax": 5911,
      "Ġhundreds": 5912,
      "Ġfeatured": 5913,
      "Ġbesides": 5914,
      "contin": 5915,
      "Ġexecutive": 5916,
      "talk": 5917,
      "Ġsisters": 5918,
      "Ġborder": 5919,
      "Ġfate": 5920,
      "Ġlif": 5921,
      "Ġchuck": 5922,
      "Ġoldest": 5923,
      "Ġcourage": 5924,
      "Ġboyfriend": 5925,
      "Ġeaten": 5926,
      "mind": 5927,
      "vant": 5928,
      "inity": 5929,
      "Ġpier": 5930,
      "Ġkim": 5931,
      "Ġfeature": 5932,
      "bring": 5933,
      "Ġprovin": 5934,
      "Ġveget": 5935,
      "Ġsusan": 5936,
      "Ġassistant": 5937,
      "beth": 5938,
      "dog": 5939,
      "mel": 5940,
      "Ġbunch": 5941,
      "Ġfile": 5942,
      "Ġfancy": 5943,
      "Ġrig": 5944,
      "Ġriding": 5945,
      "Ġwealth": 5946,
      "iro": 5947,
      "Ġali": 5948,
      "Ġconsequ": 5949,
      "Ġworship": 5950,
      "odes": 5951,
      "lets": 5952,
      "Ġcheer": 5953,
      "Ġjuice": 5954,
      "Ġbegins": 5955,
      "incoln": 5956,
      "Ġfairly": 5957,
      "Ġactivities": 5958,
      "Ġdisappeared": 5959,
      "Ġweapon": 5960,
      "Ġweapons": 5961,
      "pan": 5962,
      "Ġtone": 5963,
      "Ġnest": 5964,
      "Ġec": 5965,
      "Ġjon": 5966,
      "Ġbackground": 5967,
      "force": 5968,
      "Ġfoundation": 5969,
      "Ġintegr": 5970,
      "Ġpatients": 5971,
      "Ġestate": 5972,
      "Ġlimit": 5973,
      "Ġargument": 5974,
      "Ġorchestra": 5975,
      "david": 5976,
      "Ġbid": 5977,
      "urb": 5978,
      "chuckles": 5979,
      "Ġunknown": 5980,
      "Ġserving": 5981,
      "alex": 5982,
      "Ġturkey": 5983,
      "non": 5984,
      "Ġros": 5985,
      "Ġdeli": 5986,
      "Ġsoil": 5987,
      "Ġbuck": 5988,
      "Ġpregn": 5989,
      "Ġeleven": 5990,
      "Ġadditional": 5991,
      "Ġapartment": 5992,
      "Ġsoftware": 5993,
      "Ġkorea": 5994,
      "tan": 5995,
      "Ġaband": 5996,
      "Ġrooms": 5997,
      "Ġexped": 5998,
      "black": 5999,
      "Ġassembly": 6000,
      "fish": 6001,
      "oot": 6002,
      "yd": 6003,
      "heim": 6004,
      "Ġcraw": 6005,
      "Ġdude": 6006,
      "alous": 6007,
      "Ġreck": 6008,
      "ieved": 6009,
      "Ġages": 6010,
      "Ġroot": 6011,
      "Ġseriously": 6012,
      "compl": 6013,
      "Ġclever": 6014,
      "Ġincred": 6015,
      "Ġpromot": 6016,
      "Ġlabel": 6017,
      "Ġtreated": 6018,
      "Ġburned": 6019,
      "Ġembarrass": 6020,
      "Ġstomach": 6021,
      "pal": 6022,
      "Ġwha": 6023,
      "Ġwounded": 6024,
      "leg": 6025,
      "urally": 6026,
      "Ġtrains": 6027,
      "Ġgran": 6028,
      "osphere": 6029,
      "Ġrailroad": 6030,
      "Ġwales": 6031,
      "Ġappreciate": 6032,
      "Ġsuffered": 6033,
      "cest": 6034,
      "mag": 6035,
      "name": 6036,
      "Ġtag": 6037,
      "Ġdow": 6038,
      "Ġrick": 6039,
      "aman": 6040,
      "Ġatm": 6041,
      "ulated": 6042,
      "Ġengaged": 6043,
      "Ġstring": 6044,
      "follow": 6045,
      "Ġengineering": 6046,
      "Ġordinary": 6047,
      "Ġaffairs": 6048,
      "Ġhomes": 6049,
      "Ġbite": 6050,
      "acing": 6051,
      "Ġkong": 6052,
      "iece": 6053,
      "Ġarmed": 6054,
      "Ġbrings": 6055,
      "Ġgoodness": 6056,
      "Ġprepar": 6057,
      "Ġcapac": 6058,
      "Ġ1989": 6059,
      "Ġbuddy": 6060,
      "Ġfamiliar": 6061,
      "Ġhunting": 6062,
      "Ġglobal": 6063,
      "Ġfalse": 6064,
      "dge": 6065,
      "gie": 6066,
      "kh": 6067,
      "zer": 6068,
      "hemat": 6069,
      "Ġari": 6070,
      "enny": 6071,
      "Ġinqu": 6072,
      "uther": 6073,
      "cts": 6074,
      "Ġchamber": 6075,
      "Ġconscious": 6076,
      "Ġsurely": 6077,
      "Ġrealized": 6078,
      "Ġhoping": 6079,
      "90": 6080,
      "mum": 6081,
      "walk": 6082,
      "Ġcore": 6083,
      "Ġmand": 6084,
      "Ġmama": 6085,
      "etic": 6086,
      "urd": 6087,
      "Ġsuck": 6088,
      "Ġapparently": 6089,
      "upon": 6090,
      "del": 6091,
      "Ġdies": 6092,
      "secut": 6093,
      "Ġmole": 6094,
      "emies": 6095,
      "Ġshakespeare": 6096,
      "Ġlaunched": 6097,
      "Ġtowns": 6098,
      "Ġ1988": 6099,
      "Ġconcern": 6100,
      "Ġlevels": 6101,
      "Ġamendment": 6102,
      "Ġbatt": 6103,
      "Ġdaw": 6104,
      "Ġluc": 6105,
      "pered": 6106,
      "196": 6107,
      "Ġwondering": 6108,
      "Ġsolve": 6109,
      "Ġcrossed": 6110,
      "iggler": 6111,
      "Ġdetermined": 6112,
      "Ġwrestling": 6113,
      "Ġinstrument": 6114,
      "find": 6115,
      "jac": 6116,
      "ingly": 6117,
      "Ġgather": 6118,
      "Ġbeast": 6119,
      "Ġstan": 6120,
      "things": 6121,
      "Ġnoted": 6122,
      "Ġdeck": 6123,
      "pel": 6124,
      "Ġacid": 6125,
      "Ġflash": 6126,
      "Ġera": 6127,
      "Ġ80": 6128,
      "chapter": 6129,
      "henry": 6130,
      "Ġzealand": 6131,
      "100": 6132,
      "must": 6133,
      "Ġframe": 6134,
      "Ġ(;": 6135,
      "inde": 6136,
      "Ġunus": 6137,
      "Ġbran": 6138,
      "Ġfinds": 6139,
      "until": 6140,
      "Ġwilliams": 6141,
      "Ġresponsibility": 6142,
      "Ġugly": 6143,
      "Ġpool": 6144,
      "Ġnut": 6145,
      "Ġdisappoint": 6146,
      "Ġcircumstances": 6147,
      "gment": 6148,
      "into": 6149,
      "ano": 6150,
      "oto": 6151,
      "Ġwithd": 6152,
      "acks": 6153,
      "Ġflood": 6154,
      "Ġelements": 6155,
      "Ġcalvad": 6156,
      "Ġsuspic": 6157,
      "Ġincreasing": 6158,
      "Ġcritical": 6159,
      "Ġsurvive": 6160,
      "Ġcalvados": 6161,
      "Ġiv": 6162,
      "Ġfu": 6163,
      "arn": 6164,
      "Ġisrael": 6165,
      "Ġpros": 6166,
      "Ġharry": 6167,
      "Ġ1979": 6168,
      "Ġcommonly": 6169,
      "general": 6170,
      "Ġcriminal": 6171,
      "vest": 6172,
      "Ġhamm": 6173,
      "Ġfeather": 6174,
      "Ġhandsome": 6175,
      "Ġgeneration": 6176,
      "Ġstands": 6177,
      "Ġjohnson": 6178,
      "Ġhurricane": 6179,
      "Ġpursu": 6180,
      "Ġportug": 6181,
      "Ġwoods": 6182,
      "aimed": 6183,
      "Ġcav": 6184,
      "Ġfab": 6185,
      "orig": 6186,
      "Ġpul": 6187,
      "Ġhabit": 6188,
      "Ġproced": 6189,
      "bob": 6190,
      "Ġsixth": 6191,
      "Ġ1982": 6192,
      "Ġpainting": 6193,
      "Ġexamples": 6194,
      "conscious": 6195,
      "Ġscript": 6196,
      "500": 6197,
      "Ġpale": 6198,
      "Ġwhist": 6199,
      "Ġvent": 6200,
      "Ġclient": 6201,
      "Ġevolution": 6202,
      "ologist": 6203,
      "Ġdiscover": 6204,
      "Ġexistence": 6205,
      "Ġridic": 6206,
      "Ġsuffering": 6207,
      "Ġpad": 6208,
      "Ġhm": 6209,
      "Ġrings": 6210,
      "iring": 6211,
      "eping": 6212,
      "Ġcompon": 6213,
      "izations": 6214,
      "Ġyard": 6215,
      "Ġedition": 6216,
      "Ġdiscovery": 6217,
      "Ġcamer": 6218,
      "Ġindustrial": 6219,
      "Ġhidden": 6220,
      "Ġatlantic": 6221,
      "Ġwished": 6222,
      "Ġandrew": 6223,
      "ali": 6224,
      "Ġrug": 6225,
      "Ġplot": 6226,
      "Ġgotten": 6227,
      "Ġharder": 6228,
      "Ġchart": 6229,
      "Ġgoddess": 6230,
      "Ġ1984": 6231,
      "Ġphoto": 6232,
      "Ġrecognized": 6233,
      "Ġemergency": 6234,
      "Ġjewish": 6235,
      "Ġmood": 6236,
      "Ġlin": 6237,
      "Ġles": 6238,
      "imin": 6239,
      "Ġancest": 6240,
      "Ġjr": 6241,
      "cho": 6242,
      "Ġexact": 6243,
      "Ġextr": 6244,
      "Ġhappiness": 6245,
      "Ġearned": 6246,
      "Ġziggler": 6247,
      "Ġfactory": 6248,
      "Ġbrig": 6249,
      "Ġsenator": 6250,
      "Ġstadium": 6251,
      "45": 6252,
      "mill": 6253,
      "wind": 6254,
      "Ġtort": 6255,
      "Ġlis": 6256,
      "Ġspare": 6257,
      "Ġcompared": 6258,
      "check": 6259,
      "Ġdecisions": 6260,
      "Ġlaura": 6261,
      "Ġrecording": 6262,
      "Ġsentence": 6263,
      "cript": 6264,
      "Ġfairy": 6265,
      "Ġsettle": 6266,
      "Ġattended": 6267,
      "Ġefforts": 6268,
      "lliant": 6269,
      "36": 6270,
      "tra": 6271,
      "Ġbol": 6272,
      "Ġlas": 6273,
      "illed": 6274,
      "ivered": 6275,
      "Ġbrad": 6276,
      "Ġwhenever": 6277,
      "Ġshake": 6278,
      "Ġmathemat": 6279,
      "Ġilleg": 6280,
      "Ġsquad": 6281,
      "Ġidiot": 6282,
      "Ġgarage": 6283,
      "Ġangel": 6284,
      "Ġenvironmental": 6285,
      "Ġwaited": 6286,
      "probably": 6287,
      "bird": 6288,
      "eight": 6289,
      "rd": 6290,
      "esh": 6291,
      "omy": 6292,
      "Ġjones": 6293,
      "unts": 6294,
      "Ġeditor": 6295,
      "blood": 6296,
      "Ġestablish": 6297,
      "Ġoxford": 6298,
      "iest": 6299,
      "rot": 6300,
      "wing": 6301,
      "Ġwore": 6302,
      "Ġfrances": 6303,
      "----": 6304,
      "Ġnights": 6305,
      "Ġintended": 6306,
      "Ġ1987": 6307,
      "Ġprogramme": 6308,
      "Ġrising": 6309,
      "Ġrecognize": 6310,
      "Ġfleet": 6311,
      "Ġanalysis": 6312,
      "38": 6313,
      "lav": 6314,
      "peter": 6315,
      "chi": 6316,
      "Ġoverall": 6317,
      "Ġcris": 6318,
      "phy": 6319,
      "called": 6320,
      "div": 6321,
      "lng": 6322,
      "Ġign": 6323,
      "Ġmental": 6324,
      "asmus": 6325,
      "Ġallows": 6326,
      "Ġbrid": 6327,
      "Ġfriendly": 6328,
      "Ġrefused": 6329,
      "Ġmerchan": 6330,
      "Ġgardens": 6331,
      "Ġfortune": 6332,
      "sil": 6333,
      "tes": 6334,
      "reck": 6335,
      "Ġowe": 6336,
      "Ġrice": 6337,
      "Ġnearby": 6338,
      "Ġglasses": 6339,
      "Ġseventy": 6340,
      "Ġsymptom": 6341,
      "Ġfishing": 6342,
      "Ġdread": 6343,
      "Ġtoy": 6344,
      "Ġrush": 6345,
      "stal": 6346,
      "ounding": 6347,
      "Ġtheme": 6348,
      "okes": 6349,
      "athy": 6350,
      "Ġpleasant": 6351,
      "Ġadvanced": 6352,
      "Ġreports": 6353,
      "Ġirish": 6354,
      "Ġromanized": 6355,
      "grees": 6356,
      "Ġcommunication": 6357,
      "Ġmobile": 6358,
      "Ġdeputy": 6359,
      "26": 6360,
      "gro": 6361,
      "ule": 6362,
      "Ġig": 6363,
      "Ġlincoln": 6364,
      "Ġselected": 6365,
      "usted": 6366,
      "ops": 6367,
      "Ġdiss": 6368,
      "ternal": 6369,
      "Ġnathan": 6370,
      "Ġbudd": 6371,
      "adesh": 6372,
      "smith": 6373,
      "Ġscholars": 6374,
      "count": 6375,
      "gian": 6376,
      "oom": 6377,
      "Ġpor": 6378,
      "andy": 6379,
      "bec": 6380,
      "Ġaccomp": 6381,
      "Ġunderground": 6382,
      "Ġfactor": 6383,
      "Ġsorts": 6384,
      "Ġexplos": 6385,
      "Ġlocked": 6386,
      "Ġpages": 6387,
      "adel": 6388,
      "Ġshook": 6389,
      "Ġarrow": 6390,
      "Ġboom": 6391,
      "Ġthrown": 6392,
      "Ġzone": 6393,
      "Ġbreast": 6394,
      "Ġ1971": 6395,
      "Ġofficially": 6396,
      "Ġdawn": 6397,
      "Ġcombination": 6398,
      ".[": 6399,
      "cia": 6400,
      "pur": 6401,
      "pired": 6402,
      "à¤": 6403,
      "Ġaside": 6404,
      "Ġdegrees": 6405,
      "Ġmoves": 6406,
      "Ġgrade": 6407,
      "ordon": 6408,
      "Ġpointed": 6409,
      "Ġinspect": 6410,
      "Ġ64": 6411,
      "Ġimportance": 6412,
      "somebody": 6413,
      "Ġcreating": 6414,
      "Ġvalues": 6415,
      "twenty": 6416,
      "Ġdarkness": 6417,
      "Ġrepeated": 6418,
      "Ġinvestigation": 6419,
      "Ġmonday": 6420,
      "Ġtub": 6421,
      "Ġwow": 6422,
      "ouri": 6423,
      "half": 6424,
      "erg": 6425,
      "aly": 6426,
      "Ġstir": 6427,
      "Ġenemies": 6428,
      "Ġobvious": 6429,
      "phil": 6430,
      "Ġappeal": 6431,
      "lause": 6432,
      "Ġdefense": 6433,
      "Ġeffective": 6434,
      "baby": 6435,
      "Ġexcellent": 6436,
      "hus": 6437,
      "Ġcute": 6438,
      "Ġgil": 6439,
      "Ġeve": 6440,
      "aints": 6441,
      "Ġplastic": 6442,
      "Ġcommitted": 6443,
      "Ġmaid": 6444,
      "Ġedward": 6445,
      "gery": 6446,
      "Ġinterpret": 6447,
      "Ġwinner": 6448,
      "Ġtreasure": 6449,
      "Ġpas": 6450,
      "Ġsteal": 6451,
      "cription": 6452,
      "asked": 6453,
      "Ġrandom": 6454,
      "Ġnumerous": 6455,
      "itzerland": 6456,
      "Ġtruly": 6457,
      "ares": 6458,
      "away": 6459,
      "dist": 6460,
      "vol": 6461,
      "Ġhired": 6462,
      "Ġdozen": 6463,
      "thou": 6464,
      "umes": 6465,
      "Ġsuicide": 6466,
      "soon": 6467,
      "Ġlecture": 6468,
      "akers": 6469,
      "Ġarthur": 6470,
      "Ġfuneral": 6471,
      "Ġsnake": 6472,
      "Ġhealthy": 6473,
      "better": 6474,
      "writer": 6475,
      "Ġcruel": 6476,
      "Ġadministr": 6477,
      "hetic": 6478,
      "Ġshadow": 6479,
      "Ġcomplicated": 6480,
      "equ": 6481,
      "later": 6482,
      "yet": 6483,
      "Ġtorn": 6484,
      "Ġdave": 6485,
      "state": 6486,
      "iments": 6487,
      "george": 6488,
      "empl": 6489,
      "Ġ1981": 6490,
      "Ġmillions": 6491,
      "Ġdealing": 6492,
      "greg": 6493,
      "Ġstatistics": 6494,
      "Ġberlin": 6495,
      "Ġbeneath": 6496,
      "Ġdepends": 6497,
      "Ġreferred": 6498,
      "Ġreviews": 6499,
      "].": 6500,
      "Ġward": 6501,
      "start": 6502,
      "Ġconce": 6503,
      "avis": 6504,
      "Ġbuying": 6505,
      "ogue": 6506,
      "Ġholly": 6507,
      "Ġattitude": 6508,
      "Ġsimpl": 6509,
      "Ġtai": 6510,
      "Ġcommunities": 6511,
      "Ġromantic": 6512,
      "Ġscarce": 6513,
      "Ġbeg": 6514,
      "uri": 6515,
      "aho": 6516,
      "Ġproved": 6517,
      "cahedron": 6518,
      "anged": 6519,
      "Ġapplied": 6520,
      "Ġcrash": 6521,
      "Ġkeys": 6522,
      "Ġexplained": 6523,
      "Ġspending": 6524,
      "\"),": 6525,
      "bb": 6526,
      "might": 6527,
      "Ġwire": 6528,
      "Ġod": 6529,
      "Ġwendy": 6530,
      "Ġalpha": 6531,
      "Ġvector": 6532,
      "Ġmerry": 6533,
      "Ġcultural": 6534,
      "Ġperman": 6535,
      "Ġmazra": 6536,
      "',": 6537,
      "Ġrib": 6538,
      "weight": 6539,
      "been": 6540,
      "Ġcolors": 6541,
      "Ġretire": 6542,
      "Ġcycle": 6543,
      "Ġdynasty": 6544,
      "Ġathlet": 6545,
      "Ġlonely": 6546,
      "far": 6547,
      "tv": 6548,
      "Ġshan": 6549,
      "Ġsang": 6550,
      "Ġwound": 6551,
      "Ġkh": 6552,
      "Ġ180": 6553,
      "Ġparish": 6554,
      "Ġeighty": 6555,
      "Ġburning": 6556,
      "Ġswimming": 6557,
      "Ġmazraeh": 6558,
      "bill": 6559,
      "inent": 6560,
      "Ġcert": 6561,
      "Ġmud": 6562,
      "Ġtools": 6563,
      "alty": 6564,
      "thought": 6565,
      "Ġvision": 6566,
      "Ġunable": 6567,
      "Ġload": 6568,
      "Ġtalks": 6569,
      "Ġrelations": 6570,
      "Ġ1976": 6571,
      "Ġcreature": 6572,
      "Ġdelay": 6573,
      "Ġannual": 6574,
      "Ġtouched": 6575,
      "Ġmirror": 6576,
      "Ġbathroom": 6577,
      "Ġmemorial": 6578,
      "cong": 6579,
      "garet": 6580,
      "Ġtoile": 6581,
      "celer": 6582,
      "Ġgrav": 6583,
      "Ġmarks": 6584,
      "Ġ32": 6585,
      "Ġattor": 6586,
      "apping": 6587,
      "Ġequip": 6588,
      "Ġequals": 6589,
      "Ġshortly": 6590,
      "Ġproperly": 6591,
      "........": 6592,
      "Ġbelongs": 6593,
      "ropriate": 6594,
      "mur": 6595,
      "Ġwand": 6596,
      "onto": 6597,
      "Ġbent": 6598,
      "Ġmah": 6599,
      "iser": 6600,
      "Ġrein": 6601,
      "Ġseed": 6602,
      "Ġshell": 6603,
      "Ġbron": 6604,
      "supp": 6605,
      "Ġpresidential": 6606,
      "Ġnether": 6607,
      "Ġvolume": 6608,
      "glas": 6609,
      "Ġapplication": 6610,
      "Ġrevenge": 6611,
      "Ġrestaurant": 6612,
      "case": 6613,
      "Ġtale": 6614,
      "Ġbha": 6615,
      "Ġbass": 6616,
      "Ġdumb": 6617,
      "Ġpity": 6618,
      "Ġnit": 6619,
      "unte": 6620,
      "reek": 6621,
      "Ġbuff": 6622,
      "Ġrecall": 6623,
      "Ġhorrible": 6624,
      "Ġstronger": 6625,
      "Ġinstructions": 6626,
      "32": 6627,
      "cers": 6628,
      "fun": 6629,
      "ij": 6630,
      "Ġcats": 6631,
      "Ġtomb": 6632,
      "Ġhay": 6633,
      "olen": 6634,
      "195": 6635,
      "Ġ1986": 6636,
      "arrator": 6637,
      "Ġdescribe": 6638,
      "Ġiniti": 6639,
      "Ġticket": 6640,
      "second": 6641,
      "Ġnurse": 6642,
      "39": 6643,
      "Ġtip": 6644,
      "Ġcher": 6645,
      "Ġstu": 6646,
      "thew": 6647,
      "rog": 6648,
      "rock": 6649,
      "Ġdoctors": 6650,
      "Ġacts": 6651,
      "Ġsmo": 6652,
      "Ġhistoric": 6653,
      "Ġfolks": 6654,
      "dou": 6655,
      "fly": 6656,
      "rics": 6657,
      "inte": 6658,
      "Ġcem": 6659,
      "Ġfans": 6660,
      "Ġrode": 6661,
      "aving": 6662,
      "Ġmarked": 6663,
      "Ġpainted": 6664,
      "Ġoperating": 6665,
      "Ġpotential": 6666,
      "world": 6667,
      "Ġwebsite": 6668,
      "dney": 6669,
      "kar": 6670,
      "wich": 6671,
      "word": 6672,
      "yard": 6673,
      "Ġwing": 6674,
      "Ġpension": 6675,
      "Ġloyal": 6676,
      "Ġphr": 6677,
      "Ġmonster": 6678,
      "Ġsingles": 6679,
      "Ġsteve": 6680,
      "Ġgermans": 6681,
      "Ġturk": 6682,
      "Ġenjoyed": 6683,
      "Ġidentity": 6684,
      "Ġconfeder": 6685,
      "fight": 6686,
      "Ġtropical": 6687,
      "anes": 6688,
      "ashing": 6689,
      "Ġelephan": 6690,
      "Ġ1985": 6691,
      "Ġreflect": 6692,
      "Ġcritics": 6693,
      "Ġexec": 6694,
      "Ġinjury": 6695,
      "Ġnominated": 6696,
      "found": 6697,
      "hin": 6698,
      "sn": 6699,
      "ĠÎ": 6700,
      "Ġos": 6701,
      "Ġstole": 6702,
      "Ġark": 6703,
      "white": 6704,
      "Ġswitzerland": 6705,
      "Ġsubsequ": 6706,
      "Ġbadly": 6707,
      "Ġaircraft": 6708,
      "Ġ1964": 6709,
      "Ġcooking": 6710,
      "doesn": 6711,
      "Ġtracks": 6712,
      "Ġborrow": 6713,
      "mommy": 6714,
      "Ġfrancisco": 6715,
      "phe": 6716,
      "Ġment": 6717,
      "encies": 6718,
      "Ġstab": 6719,
      "Ġshir": 6720,
      "iffe": 6721,
      "Ġchris": 6722,
      "doctor": 6723,
      "Ġconsult": 6724,
      "gging": 6725,
      "Ġclosely": 6726,
      "Ġexciting": 6727,
      "Ġsarah": 6728,
      "Ġprincipal": 6729,
      "Ġelder": 6730,
      "quarters": 6731,
      "Ġconvention": 6732,
      "Ġelizabeth": 6733,
      "99": 6734,
      "bits": 6735,
      "wall": 6736,
      "Ġwolf": 6737,
      "rets": 6738,
      "Ġdump": 6739,
      "enna": 6740,
      "Ġtoys": 6741,
      "Ġthunder": 6742,
      "osition": 6743,
      "being": 6744,
      "enses": 6745,
      "Ġdecor": 6746,
      "Ġincident": 6747,
      "Ġdefin": 6748,
      "Ġexpert": 6749,
      "Ġhydro": 6750,
      "Ġequipment": 6751,
      "high": 6752,
      "nah": 6753,
      "Ġ\"\"": 6754,
      "hers": 6755,
      "agues": 6756,
      "Ġwhoa": 6757,
      "Ġprote": 6758,
      "Ġcomposed": 6759,
      "Ġsurre": 6760,
      "Ġ1978": 6761,
      "Ġmoral": 6762,
      "course": 6763,
      "commun": 6764,
      "Â°": 6765,
      "Ġbones": 6766,
      "Ġincome": 6767,
      "icy": 6768,
      "Ġreference": 6769,
      "Ġrud": 6770,
      "station": 6771,
      "Ġshift": 6772,
      "Ġargu": 6773,
      "Ġuns": 6774,
      "Ġministry": 6775,
      "Ġstranger": 6776,
      "Ġcape": 6777,
      "Ġassy": 6778,
      "ropol": 6779,
      "Ġexplan": 6780,
      "iii": 6781,
      "free": 6782,
      "mail": 6783,
      "tit": 6784,
      "Ġooh": 6785,
      "Ġcommit": 6786,
      "Ġinterrupt": 6787,
      "Ġfifa": 6788,
      "Ġmethods": 6789,
      "Ġatmosphere": 6790,
      "37": 6791,
      "bid": 6792,
      "zo": 6793,
      "Ġvel": 6794,
      "Ġtiger": 6795,
      "Ġtheater": 6796,
      "Ġpond": 6797,
      "Ġhunt": 6798,
      "oty": 6799,
      "Ġmeal": 6800,
      "osis": 6801,
      "Ġacceler": 6802,
      "Ġprefect": 6803,
      "Ġapply": 6804,
      "Ġcrook": 6805,
      "Ġimpression": 6806,
      "Ġdesk": 6807,
      "Ġregret": 6808,
      "Ġcenturies": 6809,
      "Ġ500": 6810,
      "Ġmissouri": 6811,
      "Ġ1983": 6812,
      "Ġbabies": 6813,
      "Ġhearts": 6814,
      "Ġcreation": 6815,
      "Ġinvestment": 6816,
      "Ġruled": 6817,
      "Ġobserved": 6818,
      "Ġpuzz": 6819,
      "Ġridiculous": 6820,
      "sam": 6821,
      "Ġwra": 6822,
      "itable": 6823,
      "aria": 6824,
      "sters": 6825,
      "Ġgoals": 6826,
      "Ġscat": 6827,
      "Ġburst": 6828,
      "Ġvalu": 6829,
      "william": 6830,
      "Ġshopping": 6831,
      "Ġconduct": 6832,
      "Ġdomestic": 6833,
      "Ġvictims": 6834,
      "Ġadopted": 6835,
      "saint": 6836,
      "Ġbible": 6837,
      "Ġgat": 6838,
      "ala": 6839,
      "Ġbeating": 6840,
      "Ġell": 6841,
      "Ġko": 6842,
      "Ġjill": 6843,
      "Ġspo": 6844,
      "Ġchase": 6845,
      "Ġending": 6846,
      "Ġpersons": 6847,
      "Ġpassage": 6848,
      "Ġincor": 6849,
      "Ġbilly": 6850,
      "Ġsidney": 6851,
      "Ġsucceeded": 6852,
      "Ġneighborhood": 6853,
      "Ġapproximately": 6854,
      "cat": 6855,
      "dar": 6856,
      "fair": 6857,
      "pent": 6858,
      "Ġcant": 6859,
      "arant": 6860,
      "Ġanger": 6861,
      "Ġconver": 6862,
      "Ġguide": 6863,
      "Ġbund": 6864,
      "Ġimpress": 6865,
      "super": 6866,
      "Ġconfused": 6867,
      "Ġjealous": 6868,
      "Ġdevice": 6869,
      "Ġdevices": 6870,
      "Ġinitial": 6871,
      "Ġfrightened": 6872,
      "honey": 6873,
      "mun": 6874,
      "Ġsink": 6875,
      "Ġlamp": 6876,
      "Ġlung": 6877,
      "Ġgoo": 6878,
      "Ġryan": 6879,
      "Ġmos": 6880,
      "dear": 6881,
      "Ġ36": 6882,
      "aws": 6883,
      "Ġ184": 6884,
      "Ġ1973": 6885,
      "Ġcontrovers": 6886,
      "Ġpalm": 6887,
      "Î¿u": 6888,
      "Ġauthorities": 6889,
      "green": 6890,
      "Ġwaters": 6891,
      "Ġgeorgia": 6892,
      "Ġsymptoms": 6893,
      "bage": 6894,
      "wanna": 6895,
      "hens": 6896,
      "Ġtooth": 6897,
      "always": 6898,
      "death": 6899,
      "mma": 6900,
      "Ġreput": 6901,
      "Ġregions": 6902,
      "Ġ1975": 6903,
      "Ġwinds": 6904,
      "Ġ1930": 6905,
      "Ġbalance": 6906,
      "Ġemploy": 6907,
      "Ġnuclear": 6908,
      "pri": 6909,
      "Ġaid": 6910,
      "Ġwag": 6911,
      "Ġbone": 6912,
      "Ġreward": 6913,
      "Ġreject": 6914,
      "ador": 6915,
      "Ġvic": 6916,
      "Ġsufficient": 6917,
      "Ġtrained": 6918,
      "ensions": 6919,
      "ibi": 6920,
      "Ġskills": 6921,
      "Ġbrilliant": 6922,
      "Ġpermission": 6923,
      "Ġbangl": 6924,
      "Ġsacred": 6925,
      "Ġastron": 6926,
      "Ġvehicle": 6927,
      "respond": 6928,
      "Ġimperial": 6929,
      "gon": 6930,
      "ran": 6931,
      "Ġak": 6932,
      "Ġdub": 6933,
      "Ġreign": 6934,
      "kel": 6935,
      "Ġanton": 6936,
      "Ġselect": 6937,
      "ours": 6938,
      "Ġcovers": 6939,
      "Ġsecure": 6940,
      "Ġentrance": 6941,
      "Ġhorror": 6942,
      "Ġvisited": 6943,
      "Ġdefeat": 6944,
      "ursday": 6945,
      "Ġphysics": 6946,
      "Ġtypical": 6947,
      "Ġclaimed": 6948,
      "Ġsources": 6949,
      "Ġaisne": 6950,
      "Ġunusual": 6951,
      "narrator": 6952,
      "pack": 6953,
      "var": 6954,
      "Ġfasc": 6955,
      "agu": 6956,
      "agger": 6957,
      "Ġputs": 6958,
      "Ġindians": 6959,
      "Ġinstall": 6960,
      "Ġassume": 6961,
      "Ġcurious": 6962,
      "Ġholds": 6963,
      "Ġ1974": 6964,
      "Ġ1969": 6965,
      "Ġsending": 6966,
      "Ġseparated": 6967,
      "Ġrevealed": 6968,
      "Ġpregnant": 6969,
      "gra": 6970,
      "jam": 6971,
      "lou": 6972,
      "sk": 6973,
      "Ġbark": 6974,
      "Ġmcc": 6975,
      "Ġoak": 6976,
      "Ġmode": 6977,
      "ifying": 6978,
      "Ġexha": 6979,
      "Ġwanting": 6980,
      "Ġmiller": 6981,
      "Ġinterests": 6982,
      "Ġmadam": 6983,
      "Ġobjects": 6984,
      "Ġdetective": 6985,
      "rin": 6986,
      "wick": 6987,
      "Ġpipe": 6988,
      "Ġpushed": 6989,
      "Ġgaz": 6990,
      "Ġrear": 6991,
      "Ġnotable": 6992,
      "Ġneut": 6993,
      "ieur": 6994,
      "Ġsplend": 6995,
      "Ġremaining": 6996,
      "Ġinstant": 6997,
      "Ġparall": 6998,
      "Ġvoices": 6999,
      "tendo": 7000,
      "Ġ1940": 7001,
      "hamed": 7002,
      "produ": 7003,
      "poor": 7004,
      "Ġmassive": 7005,
      "Ġdifficulty": 7006,
      "Ġclothing": 7007,
      "Ġregarded": 7008,
      "Ġjunior": 7009,
      "Ġconservative": 7010,
      "bas": 7011,
      "none": 7012,
      "power": 7013,
      "Ġwaves": 7014,
      "Ġcord": 7015,
      "Ġmath": 7016,
      "iture": 7017,
      "alo": 7018,
      "Ġstress": 7019,
      "Ġalice": 7020,
      "Ġleaf": 7021,
      "cience": 7022,
      "Ġmaiden": 7023,
      "Ġmatt": 7024,
      "Ġengage": 7025,
      "phia": 7026,
      "Ġdepth": 7027,
      "Ġlaunch": 7028,
      "Ġdriven": 7029,
      "ika": 7030,
      "Ġjean": 7031,
      "Ġroads": 7032,
      "Ġmurdered": 7033,
      "Ġvolunte": 7034,
      "Ġpilot": 7035,
      "absolutely": 7036,
      "Ġalternative": 7037,
      "Ġattorney": 7038,
      "Ġ/": 7039,
      "Ġira": 7040,
      "Ġbot": 7041,
      "Ġbos": 7042,
      "itors": 7043,
      "Ġgor": 7044,
      "Ġstamp": 7045,
      "oked": 7046,
      "Ġdisney": 7047,
      "Ġspell": 7048,
      "Ġcharged": 7049,
      "Ġsitu": 7050,
      "Ġopposed": 7051,
      "Ġphilipp": 7052,
      "Ġladder": 7053,
      "Ġcombined": 7054,
      "Ġmachines": 7055,
      "Ġgreece": 7056,
      "Ġsurrounded": 7057,
      "Ġintelligence": 7058,
      "Ġexpedition": 7059,
      "31": 7060,
      "each": 7061,
      "mil": 7062,
      "Ġbbc": 7063,
      "Ġtoast": 7064,
      "astern": 7065,
      "Ġguarant": 7066,
      "orders": 7067,
      "Ġcourts": 7068,
      "Ġsurgery": 7069,
      "Ġlisted": 7070,
      "Ġmusician": 7071,
      "Ġprovides": 7072,
      "Ġ1972": 7073,
      "Ġdistricts": 7074,
      "Ġearthqu": 7075,
      "Ġvert": 7076,
      "Ġpractical": 7077,
      "Ġprisoners": 7078,
      "Ġinfant": 7079,
      "Ġliterally": 7080,
      "Ġaffected": 7081,
      "Ġsanta": 7082,
      "Ġfisher": 7083,
      "aa": 7084,
      "cam": 7085,
      "dale": 7086,
      "Ġmoo": 7087,
      "Ġlane": 7088,
      "Ġgained": 7089,
      "alan": 7090,
      "Ġrefe": 7091,
      "Ġkr": 7092,
      "una": 7093,
      "ateful": 7094,
      "Ġnoble": 7095,
      "Ġspite": 7096,
      "Ġmargin": 7097,
      "Ġdeserve": 7098,
      "goodbye": 7099,
      "Ġdrinks": 7100,
      "Ġoccas": 7101,
      "Ġsuperior": 7102,
      "Ġvideos": 7103,
      "Ġcapture": 7104,
      "Ġkorean": 7105,
      "Ġcorporation": 7106,
      "Ġdramatic": 7107,
      "bach": 7108,
      "Ġfuel": 7109,
      "oria": 7110,
      "Ġgib": 7111,
      "Ġleon": 7112,
      "akh": 7113,
      "Ġboats": 7114,
      "Ġactions": 7115,
      "Ġowners": 7116,
      "Ġdistingu": 7117,
      "pective": 7118,
      "Ġbits": 7119,
      "Ġstudying": 7120,
      "Ġassign": 7121,
      "ounce": 7122,
      "engers": 7123,
      "Ġviews": 7124,
      "Ġengineer": 7125,
      "Ġjumped": 7126,
      "Ġarchitecture": 7127,
      "Ġcotton": 7128,
      "Ġbom": 7129,
      "esome": 7130,
      "Ġhong": 7131,
      "Ġstolen": 7132,
      "riff": 7133,
      "Ġguests": 7134,
      "Ġacted": 7135,
      "onsense": 7136,
      "Ġhousehold": 7137,
      "Ġcapable": 7138,
      "Ġreturning": 7139,
      "Ġchecked": 7140,
      "Ġphotograph": 7141,
      "chers": 7142,
      "Ġwalter": 7143,
      "cated": 7144,
      "gent": 7145,
      "gust": 7146,
      "hol": 7147,
      "Ġbond": 7148,
      "etime": 7149,
      "Ġraw": 7150,
      "ategy": 7151,
      "apore": 7152,
      "Ġteen": 7153,
      "Ġtwin": 7154,
      "clusion": 7155,
      "plus": 7156,
      "Ġslide": 7157,
      "Ġdepression": 7158,
      "Ġ1968": 7159,
      "Ġdanny": 7160,
      "rayed": 7161,
      "Ġoxy": 7162,
      "Ġindividuals": 7163,
      "Ġknocked": 7164,
      "Ġbenefits": 7165,
      "Ġliquid": 7166,
      "Ġheavily": 7167,
      "iac": 7168,
      "ku": 7169,
      "Ġlap": 7170,
      "Ġnaked": 7171,
      "Ġbears": 7172,
      "usa": 7173,
      "Ġrivers": 7174,
      "Ġku": 7175,
      "Ġjan": 7176,
      "Ġjury": 7177,
      "Ġpole": 7178,
      "Ġminds": 7179,
      "Ġpossibility": 7180,
      "Ġleads": 7181,
      "Ġclassic": 7182,
      "iami": 7183,
      "Ġmerc": 7184,
      "Ġcops": 7185,
      "Ġbanks": 7186,
      "Ġsuffer": 7187,
      "Ġwidely": 7188,
      "break": 7189,
      "Ġdiamond": 7190,
      "Ġscenes": 7191,
      "Ġceremony": 7192,
      "Ġescaped": 7193,
      "Ġrescue": 7194,
      "Ġinhabitants": 7195,
      "iat": 7196,
      "tri": 7197,
      "Ġhug": 7198,
      "iders": 7199,
      "andie": 7200,
      "robert": 7201,
      "ummy": 7202,
      "Ġvast": 7203,
      "Ġtender": 7204,
      "Ġcrap": 7205,
      "Ġpolish": 7206,
      "Ġstrategy": 7207,
      "Ġfriendship": 7208,
      "Ġzoo": 7209,
      "Ġswing": 7210,
      "Ġpurple": 7211,
      "Ġreduced": 7212,
      "Ġemploye": 7213,
      "bast": 7214,
      "Ġtu": 7215,
      "erable": 7216,
      "Ġfond": 7217,
      "Ġhits": 7218,
      "Ġreco": 7219,
      "Ġassault": 7220,
      "Ġ1945": 7221,
      "Ġestim": 7222,
      "besides": 7223,
      "Ġissued": 7224,
      "Ġanaly": 7225,
      "Ġgraduated": 7226,
      "det": 7227,
      "sun": 7228,
      "vor": 7229,
      "zing": 7230,
      "Ġpump": 7231,
      "Ġthir": 7232,
      "Ġron": 7233,
      "amy": 7234,
      "Ġdebt": 7235,
      "Ġprec": 7236,
      "Ġconsists": 7237,
      "Ġideal": 7238,
      "Ġdelivered": 7239,
      "aska": 7240,
      "Ġdollar": 7241,
      "Ġnecessarily": 7242,
      "Ġblocks": 7243,
      "Ġvictoria": 7244,
      "Ġstruggle": 7245,
      "Ġadventure": 7246,
      "Ġpour": 7247,
      "Ġinse": 7248,
      "Ġinfect": 7249,
      "Ġhog": 7250,
      "Ġeager": 7251,
      "sea": 7252,
      "Ġvul": 7253,
      "quick": 7254,
      "forget": 7255,
      "Ġmeters": 7256,
      "aughters": 7257,
      "Ġpersonality": 7258,
      "Ġjacket": 7259,
      "Ġalbums": 7260,
      "Ġcopies": 7261,
      "Ġelections": 7262,
      "Ġversions": 7263,
      "Ġbern": 7264,
      "Ġoliver": 7265,
      "adelphia": 7266,
      "Ġtoilet": 7267,
      "Ġmig": 7268,
      "Ġnurs": 7269,
      "Ġitems": 7270,
      "Ġbend": 7271,
      "Ġknees": 7272,
      "roll": 7273,
      "soft": 7274,
      "Ġclar": 7275,
      "Ġstrateg": 7276,
      "Ġrelief": 7277,
      "Ġconfidence": 7278,
      "Ġ150": 7279,
      "Ġimages": 7280,
      "Ġfigured": 7281,
      "Ġrepresentatives": 7282,
      "Ġnintendo": 7283,
      "Ġhoped": 7284,
      "normandie": 7285,
      "Ġtaiwan": 7286,
      "fre": 7287,
      "kat": 7288,
      "rum": 7289,
      "lee": 7290,
      "stan": 7291,
      "Ġgoodbye": 7292,
      "Ġremove": 7293,
      "ront": 7294,
      "Ġexplore": 7295,
      "Ġcommunist": 7296,
      "Ġsoup": 7297,
      "Ġverte": 7298,
      "Ġpirates": 7299,
      "Ġsatisfied": 7300,
      "Ġavenue": 7301,
      "burn": 7302,
      "tor": 7303,
      "vior": 7304,
      "Ġsought": 7305,
      "rep": 7306,
      "organ": 7307,
      "uled": 7308,
      "Ġgra": 7309,
      "avan": 7310,
      "Ġours": 7311,
      "ffin": 7312,
      "Ġaccompl": 7313,
      "Ġshoulders": 7314,
      "Ġimplement": 7315,
      "Ġmoments": 7316,
      "Ġpersonally": 7317,
      "Ġbasse": 7318,
      "Ġconstit": 7319,
      "Ġequation": 7320,
      "Ġorganized": 7321,
      "Ġrobin": 7322,
      "Ġmystery": 7323,
      "Ġextended": 7324,
      "Ġnetherlands": 7325,
      "mir": 7326,
      "Ġsne": 7327,
      "Ġfoss": 7328,
      "Ġpiss": 7329,
      "Ġpants": 7330,
      "Ġnegot": 7331,
      "Ġconclud": 7332,
      "Ġhoward": 7333,
      "Ġchildhood": 7334,
      "Ġinsult": 7335,
      "ounced": 7336,
      "except": 7337,
      "Ġanswers": 7338,
      "Ġbedroom": 7339,
      "uesday": 7340,
      "Ġinitially": 7341,
      "Ġarchitect": 7342,
      "Ġpunishment": 7343,
      "Ġcolumbia": 7344,
      "Ġbranches": 7345,
      "33": 7346,
      "bri": 7347,
      "dem": 7348,
      "Ġlamb": 7349,
      "Ġnuts": 7350,
      "Ġstim": 7351,
      "Ġliver": 7352,
      "opp": 7353,
      "Ġroger": 7354,
      "Ġ1963": 7355,
      "nesday": 7356,
      "Ġargent": 7357,
      "Ġdisappear": 7358,
      "Ġarranged": 7359,
      "Ġalexander": 7360,
      "Ġintellect": 7361,
      "Ġwilson": 7362,
      "Ġsweden": 7363,
      "Ġcemet": 7364,
      "ele": 7365,
      "ras": 7366,
      "Ġtank": 7367,
      "Ġsher": 7368,
      "Ġbike": 7369,
      "Ġcass": 7370,
      "Ġrope": 7371,
      "Ġjazz": 7372,
      "Ġcontext": 7373,
      "Ġheadquarters": 7374,
      "Ġentry": 7375,
      "Ġinspired": 7376,
      "Ġsingapore": 7377,
      "Ġaccur": 7378,
      "Ġcontrolled": 7379,
      "Ġinternal": 7380,
      "Ġclubs": 7381,
      "Ġgranted": 7382,
      "Ġpollution": 7383,
      "Ġdemonstr": 7384,
      "fu": 7385,
      "gue": 7386,
      "low": 7387,
      "won": 7388,
      "Ġtel": 7389,
      "Ġfier": 7390,
      "itched": 7391,
      "Ġbegun": 7392,
      "Ġalt": 7393,
      "ifts": 7394,
      "Ġpeak": 7395,
      "Ġpride": 7396,
      "Ġboots": 7397,
      "Ġmargaret": 7398,
      "angers": 7399,
      "shot": 7400,
      "inton": 7401,
      "Ġrecru": 7402,
      "Ġregister": 7403,
      "Ġgene": 7404,
      "Ġbitter": 7405,
      "Ġdrives": 7406,
      "Ġdouglas": 7407,
      "Ġbrian": 7408,
      "Ġdiscussion": 7409,
      "Ġsustain": 7410,
      "Ġcemetery": 7411,
      "fif": 7412,
      "lan": 7413,
      "same": 7414,
      "vy": 7415,
      "Â´": 7416,
      "having": 7417,
      "Ġlam": 7418,
      "Ġlately": 7419,
      "ati": 7420,
      "Ġbee": 7421,
      "Ġjay": 7422,
      "Ġjur": 7423,
      "thy": 7424,
      "Ġallen": 7425,
      "Ġerasmus": 7426,
      "laus": 7427,
      "Ġemily": 7428,
      "Ġ1947": 7429,
      "Ġphotos": 7430,
      "Ġspiritual": 7431,
      "Ġmaximum": 7432,
      "Ġcomposer": 7433,
      "Ġvotes": 7434,
      "hl": 7435,
      "lines": 7436,
      "rons": 7437,
      "vard": 7438,
      "wart": 7439,
      "Ġbum": 7440,
      "Ġcreek": 7441,
      "eness": 7442,
      "usive": 7443,
      "seven": 7444,
      "Ġanno": 7445,
      "Ġyards": 7446,
      "ples": 7447,
      "Ġbaron": 7448,
      "Ġsites": 7449,
      "Ġalongside": 7450,
      "Ġprofession": 7451,
      "vinced": 7452,
      "Ġreduce": 7453,
      "Ġemotions": 7454,
      "Ġjacob": 7455,
      "Ġcategory": 7456,
      "lers": 7457,
      "Ġanch": 7458,
      "Ġanna": 7459,
      "Ġleap": 7460,
      "Ġloan": 7461,
      "Ġbuzz": 7462,
      "Ġerror": 7463,
      "Ġsmiled": 7464,
      "Ġ300": 7465,
      "Ġwarning": 7466,
      "Ġmaine": 7467,
      "Ġtries": 7468,
      "Ġcontinu": 7469,
      "Ġcutting": 7470,
      "Ġadvoc": 7471,
      "Ġrevol": 7472,
      "Ġringing": 7473,
      "Ġkissed": 7474,
      "Ġemotional": 7475,
      "Ġarticles": 7476,
      "Ġcandidate": 7477,
      "Ġabandoned": 7478,
      "Ġmerchant": 7479,
      "iber": 7480,
      "iency": 7481,
      "sat": 7482,
      "ãĥ": 7483,
      "Ġcattle": 7484,
      "Ġmouse": 7485,
      "Ġni": 7486,
      "Ġthread": 7487,
      "Ġfrag": 7488,
      "Ġ1920": 7489,
      "Ġdepos": 7490,
      "Ġindex": 7491,
      "Ġtelephone": 7492,
      "Ġcrossing": 7493,
      "Ġelectricity": 7494,
      "Ġpicard": 7495,
      "vid": 7496,
      "Ġoption": 7497,
      "Ġdaughters": 7498,
      "Ġtool": 7499,
      "especially": 7500,
      "Ġgates": 7501,
      "Ġka": 7502,
      "Ġstones": 7503,
      "uncle": 7504,
      "uls": 7505,
      "istol": 7506,
      "orted": 7507,
      "Ġcoordin": 7508,
      "Ġagents": 7509,
      "Ġletting": 7510,
      "Ġformat": 7511,
      "Ġopens": 7512,
      "Ġcollabor": 7513,
      "Ġnaturally": 7514,
      "Ġpromoted": 7515,
      "chair": 7516,
      "Ġ1944": 7517,
      "Ġborough": 7518,
      "Ġbreathing": 7519,
      "Ġchampionships": 7520,
      "Ġmerely": 7521,
      "Ġgathered": 7522,
      "making": 7523,
      "mouth": 7524,
      "sis": 7525,
      "Ġbc": 7526,
      "Ġbou": 7527,
      "Ġpent": 7528,
      "Ġpant": 7529,
      "Ġstores": 7530,
      "rix": 7531,
      "Ġchap": 7532,
      "Ġbetty": 7533,
      "ordinary": 7534,
      "Ġdrown": 7535,
      "Ġformation": 7536,
      "Ġelev": 7537,
      "Ġlistened": 7538,
      "Ġsooner": 7539,
      "Ġillness": 7540,
      "Ġaustria": 7541,
      "Ġattacks": 7542,
      "Ġquietly": 7543,
      "between": 7544,
      "Ġaffair": 7545,
      "Ġdigital": 7546,
      "Ġsacrif": 7547,
      "Ġstuart": 7548,
      "95": 7549,
      "lady": 7550,
      "rome": 7551,
      "south": 7552,
      "Ġtack": 7553,
      "Ġsty": 7554,
      "wear": 7555,
      "iao": 7556,
      "Ġcompar": 7557,
      "Ġmuhammad": 7558,
      "onsieur": 7559,
      "Ġ37": 7560,
      "Ġregiment": 7561,
      "Ġheaded": 7562,
      "Ġslave": 7563,
      "Ġcolumn": 7564,
      "Ġadding": 7565,
      "Ġ1967": 7566,
      "Ġprojects": 7567,
      "Ġparallel": 7568,
      "sweet": 7569,
      "Ġaye": 7570,
      "Ġfulf": 7571,
      "athan": 7572,
      "Ġhut": 7573,
      "unless": 7574,
      "Ġservant": 7575,
      "Ġ1977": 7576,
      "Ġ1965": 7577,
      "Ġidaho": 7578,
      "Ġvillages": 7579,
      "Ġproperties": 7580,
      "Ġdelicious": 7581,
      "Ġphase": 7582,
      "best": 7583,
      "ees": 7584,
      "wis": 7585,
      "rec": 7586,
      "Ġcave": 7587,
      "Ġford": 7588,
      "Ġarc": 7589,
      "Ġchop": 7590,
      "Ġscored": 7591,
      "Ġprecious": 7592,
      "Ġoperated": 7593,
      "Ġpositions": 7594,
      "Ġurban": 7595,
      "Ġbehavior": 7596,
      "Ġcapacity": 7597,
      "Ġoxygen": 7598,
      "mod": 7599,
      "Ġwoo": 7600,
      "ouch": 7601,
      "Ġbah": 7602,
      "Ġfiction": 7603,
      "Ġdna": 7604,
      "omed": 7605,
      "Ġsolo": 7606,
      "Ġleo": 7607,
      "Ġnowhere": 7608,
      "Ġappropriate": 7609,
      "Ġthrone": 7610,
      "Ġsmiling": 7611,
      "Ġrecy": 7612,
      "Ġmonarch": 7613,
      "Ġpersu": 7614,
      "Ġsurve": 7615,
      "Ġstops": 7616,
      "Ġstepped": 7617,
      "Ġmeetings": 7618,
      "Ġclassical": 7619,
      "Ġmurde": 7620,
      "Ġamongst": 7621,
      "Ġabsolute": 7622,
      "Ġepisodes": 7623,
      "Ġpirate": 7624,
      "given": 7625,
      "47": 7626,
      "ture": 7627,
      "ÏĦ": 7628,
      "Ġald": 7629,
      "Ġairl": 7630,
      "nde": 7631,
      "Ġdur": 7632,
      "owing": 7633,
      "Ġkha": 7634,
      "Ġstairs": 7635,
      "lyne": 7636,
      "Ġdove": 7637,
      "Ġdean": 7638,
      "Ġvacc": 7639,
      "Ġclay": 7640,
      "Ġmetropol": 7641,
      "tense": 7642,
      "Ġcorrespond": 7643,
      "Ġexpecting": 7644,
      "Ġexisting": 7645,
      "Ġcroat": 7646,
      "Ġintroduce": 7647,
      "Ġexplanation": 7648,
      "log": 7649,
      "mount": 7650,
      "names": 7651,
      "oes": 7652,
      "top": 7653,
      "onic": 7654,
      "Ġcin": 7655,
      "anim": 7656,
      "Ġthursday": 7657,
      "Ġwashed": 7658,
      "ustration": 7659,
      "Ġblast": 7660,
      "Ġbold": 7661,
      "Ġscand": 7662,
      "Ġindones": 7663,
      "Ġsets": 7664,
      "Ġswallow": 7665,
      "Ġinvasion": 7666,
      "Ġdefence": 7667,
      "Ġreplace": 7668,
      "Ġmodels": 7669,
      "tomorrow": 7670,
      "Ġsailed": 7671,
      "Ġviolent": 7672,
      "Ġdocuments": 7673,
      "Ġfrequently": 7674,
      "Ġillegal": 7675,
      "Ġigno": 7676,
      "Ġvaluable": 7677,
      "pardon": 7678,
      "zes": 7679,
      "Ġwol": 7680,
      "Ġmd": 7681,
      "Ġfaced": 7682,
      "Ġrag": 7683,
      "Ġabd": 7684,
      "Ġsheet": 7685,
      "Ġgrateful": 7686,
      "icking": 7687,
      "Ġyu": 7688,
      "Ġeric": 7689,
      "Ġreserve": 7690,
      "Ġdescend": 7691,
      "velope": 7692,
      "Ġchurches": 7693,
      "Ġmessages": 7694,
      "kyo": 7695,
      "Ġsubjects": 7696,
      "Ġracing": 7697,
      "Ġnaval": 7698,
      "Ġfantastic": 7699,
      "Ġrhyth": 7700,
      "aii": 7701,
      "cas": 7702,
      "ded": 7703,
      "mate": 7704,
      "round": 7705,
      "Ġfel": 7706,
      "Ġgross": 7707,
      "Ġrit": 7708,
      "gee": 7709,
      "iev": 7710,
      "Ġpron": 7711,
      "hedral": 7712,
      "issa": 7713,
      "Ġbelt": 7714,
      "Ġsimon": 7715,
      "Ġuniversities": 7716,
      "Ġcorps": 7717,
      "Ġ1941": 7718,
      "Ġtechnical": 7719,
      "Ġdescription": 7720,
      "Ġclaims": 7721,
      "build": 7722,
      "Ġtoronto": 7723,
      "Ġseventh": 7724,
      "Ġadults": 7725,
      "\"...": 7726,
      "cried": 7727,
      "east": 7728,
      "iate": 7729,
      "mac": 7730,
      "pow": 7731,
      "ridge": 7732,
      "Ġwicked": 7733,
      "erted": 7734,
      "ington": 7735,
      "atures": 7736,
      "Ġbeings": 7737,
      "Ġefficient": 7738,
      "Ġashamed": 7739,
      "ifer": 7740,
      "Ġtear": 7741,
      "Ġlover": 7742,
      "Ġfinance": 7743,
      "Ġinteract": 7744,
      "Ġstandards": 7745,
      "Ġlesson": 7746,
      "Ġprinciple": 7747,
      "Ġexperiences": 7748,
      "Ġsmooth": 7749,
      "sud": 7750,
      "Ġdio": 7751,
      "enough": 7752,
      "Ġinch": 7753,
      "icia": 7754,
      "Ġseats": 7755,
      "Ġconvinced": 7756,
      "Ġviv": 7757,
      "gines": 7758,
      "Ġregist": 7759,
      "load": 7760,
      "Ġdifferences": 7761,
      "Ġjohnny": 7762,
      "Ġphiladelphia": 7763,
      "drink": 7764,
      "Ġprepare": 7765,
      "footnote": 7766,
      "Ġcigaret": 7767,
      "easy": 7768,
      "jose": 7769,
      "mers": 7770,
      "ught": 7771,
      "Ġtuesday": 7772,
      "Ġdull": 7773,
      "Ġdating": 7774,
      "atically": 7775,
      "aylor": 7776,
      "Ġsel": 7777,
      "Ġcomic": 7778,
      "Ġworn": 7779,
      "Ġuser": 7780,
      "Ġspar": 7781,
      "Ġpartly": 7782,
      "gger": 7783,
      "maj": 7784,
      "Ġmercy": 7785,
      "scream": 7786,
      "Ġtesting": 7787,
      "Ġidentified": 7788,
      "crete": 7789,
      "Ġthorough": 7790,
      "Ġprovinces": 7791,
      "Ġiraq": 7792,
      "48": 7793,
      "number": 7794,
      "song": 7795,
      "Ġmiami": 7796,
      "Ġdial": 7797,
      "asia": 7798,
      "Ġeag": 7799,
      "stru": 7800,
      "ctic": 7801,
      "Ġneat": 7802,
      "Ġbruce": 7803,
      "Ġchapter": 7804,
      "Ġprecise": 7805,
      "Ġformal": 7806,
      "Ġcharges": 7807,
      "Ġswift": 7808,
      "Ġadmitted": 7809,
      "Ġpicking": 7810,
      "Ġtests": 7811,
      "Ġabsor": 7812,
      "odecahedron": 7813,
      "Ġmexican": 7814,
      "Ġessentially": 7815,
      "Ġpicardie": 7816,
      ".&": 7817,
      "cond": 7818,
      "pool": 7819,
      "Ġaer": 7820,
      "Ġbis": 7821,
      "itary": 7822,
      "Ġjung": 7823,
      "Ġsoap": 7824,
      "Ġvon": 7825,
      "osa": 7826,
      "berry": 7827,
      "Ġenvelope": 7828,
      "Ġspoon": 7829,
      "Ġcontained": 7830,
      "Ġpossession": 7831,
      "Ġhated": 7832,
      "Ġeighteen": 7833,
      "Ġsupporting": 7834,
      "Ġstephen": 7835,
      "Ġapproved": 7836,
      "Ġruin": 7837,
      "Ġpulling": 7838,
      "bourne": 7839,
      "Ġoptim": 7840,
      "Ġscreaming": 7841,
      "Ġexercise": 7842,
      "Ġreputation": 7843,
      "dire": 7844,
      "Ġtube": 7845,
      "Ġdug": 7846,
      "Ġnarr": 7847,
      "Ġassh": 7848,
      "abel": 7849,
      "ava": 7850,
      "mmm": 7851,
      "Ġcausing": 7852,
      "Ġallowing": 7853,
      "Ġlatest": 7854,
      "Ġliterary": 7855,
      "Ġpurposes": 7856,
      "Ġappointment": 7857,
      "Ġnewspapers": 7858,
      "Ġdistribution": 7859,
      "Ġexperienced": 7860,
      "children": 7861,
      "Ġdawson": 7862,
      "gal": 7863,
      "nine": 7864,
      "oct": 7865,
      "Ġasks": 7866,
      "ctive": 7867,
      "ilton": 7868,
      "oli": 7869,
      "Ġtrait": 7870,
      "Ġuncom": 7871,
      "ixon": 7872,
      "Ġworldwide": 7873,
      "Ġbarn": 7874,
      "Ġrestrict": 7875,
      "Ġlanded": 7876,
      "prise": 7877,
      "Ġdivine": 7878,
      "Ġangle": 7879,
      "Ġcollected": 7880,
      "Ġlicense": 7881,
      "Ġgoogle": 7882,
      "bro": 7883,
      "hit": 7884,
      "lest": 7885,
      "Ġbars": 7886,
      "Ġfid": 7887,
      "Ġstable": 7888,
      "Ġuseless": 7889,
      "Ġchoo": 7890,
      "Ġenorm": 7891,
      "Ġrecon": 7892,
      "Ġ48": 7893,
      "Ġinstitution": 7894,
      "Ġoblig": 7895,
      "Ġpasses": 7896,
      "otted": 7897,
      "chae": 7898,
      "Ġspirits": 7899,
      "laughing": 7900,
      "Ġrepeat": 7901,
      "Ġmysterious": 7902,
      "cot": 7903,
      "sell": 7904,
      "Ġgosh": 7905,
      "opher": 7906,
      "quite": 7907,
      "Ġclin": 7908,
      "Ġwherever": 7909,
      "cling": 7910,
      "mann": 7911,
      "fulness": 7912,
      "Ġmighty": 7913,
      "Ġpatri": 7914,
      "Ġprobability": 7915,
      "Ġequival": 7916,
      "Ġstarred": 7917,
      "Ġhunter": 7918,
      "Ġthreatened": 7919,
      "Ġresource": 7920,
      "Ġdedicated": 7921,
      "Ġdiplom": 7922,
      "lrb": 7923,
      "oard": 7924,
      "ugg": 7925,
      "hah": 7926,
      "haw": 7927,
      "esar": 7928,
      "Ġindu": 7929,
      "oslav": 7930,
      "Ġtrap": 7931,
      "Ġtrace": 7932,
      "Ġtrump": 7933,
      "agers": 7934,
      "onder": 7935,
      "Ġnewly": 7936,
      "Ġhurts": 7937,
      "Ġdeveloping": 7938,
      "Ġextent": 7939,
      "Ġlargely": 7940,
      "Ġawake": 7941,
      "ancing": 7942,
      "keeper": 7943,
      "Ġcabinet": 7944,
      "Ġexhibition": 7945,
      "Ġpermanent": 7946,
      "press": 7947,
      "rrb": 7948,
      "spr": 7949,
      "siden": 7950,
      "Ġsally": 7951,
      "Ġbure": 7952,
      "Ġcd": 7953,
      "young": 7954,
      "Ġbees": 7955,
      "Ġthief": 7956,
      "stick": 7957,
      "...!": 7958,
      "Ġpeasant": 7959,
      "teenth": 7960,
      "neath": 7961,
      "beh": 7962,
      "Ġmatthew": 7963,
      "Ġcharlie": 7964,
      "Ġgenius": 7965,
      "Ġbarbar": 7966,
      "Ġdefined": 7967,
      "Ġcomputers": 7968,
      "Ġbeaten": 7969,
      "nessee": 7970,
      "Ġolympic": 7971,
      "sidenote": 7972,
      "tube": 7973,
      "zi": 7974,
      "Ġms": 7975,
      "Ġdoo": 7976,
      "Ġgest": 7977,
      "Ġgig": 7978,
      "stic": 7979,
      "ahmad": 7980,
      "udes": 7981,
      "club": 7982,
      "Ġattached": 7983,
      "ologists": 7984,
      "Ġgreet": 7985,
      "Ġgrandfather": 7986,
      "idae": 7987,
      "Ġfortun": 7988,
      "Ġchemistry": 7989,
      "Ġencourage": 7990,
      "much": 7991,
      "Ġrenamed": 7992,
      "Ġelephant": 7993,
      "eenth": 7994,
      "mid": 7995,
      "morning": 7996,
      "piece": 7997,
      "rac": 7998,
      "Ġsung": 7999
    },
    "merges": [
      "Ġ t",
      "h e",
      "Ġ a",
      "i n",
      "Ġt he",
      "Ġ s",
      "Ġ w",
      "r e",
      "o u",
      "o n",
      "Ġ i",
      "h a",
      "e r",
      "Ġ b",
      "Ġ c",
      "Ġ m",
      "n d",
      "Ġ o",
      "Ġ f",
      "Ġ d",
      "in g",
      "o r",
      "Ġ p",
      "a n",
      "e d",
      "l l",
      "e n",
      "Ġt o",
      "e s",
      "y ou",
      "i t",
      "i s",
      "Ġ l",
      "Ġo f",
      "Ġ in",
      "Ġ g",
      "a r",
      "a t",
      "Ġa nd",
      "Ġ you",
      "a s",
      "ha t",
      "Ġ n",
      "o m",
      "Ġ he",
      "Ġ h",
      "i c",
      "l e",
      "o w",
      "v e",
      "o t",
      "Ġ ha",
      "a l",
      "Ġi t",
      "Ġb e",
      "u s",
      "' s",
      "Ġt h",
      "Ġ e",
      "a y",
      "Ġi s",
      "Ġt hat",
      "e t",
      "Ġ on",
      "i on",
      "i d",
      "Ġ re",
      "g h",
      "Ġ r",
      "Ġw e",
      "en t",
      "u t",
      "l d",
      "Ġw as",
      "a c",
      "v er",
      "Ġ k",
      "a m",
      "Ġs t",
      "Ġf or",
      "s t",
      "i m",
      "t he",
      ". .",
      "l y",
      "s e",
      "a d",
      "i r",
      "Ġ u",
      "o o",
      "Ġ .",
      "gh t",
      "' t",
      "a nd",
      "k e",
      "Ġm e",
      "ou t",
      "a ll",
      "Ġa n",
      "it h",
      "Ġ j",
      "r o",
      "Ġa s",
      "u r",
      "Ġw ith",
      "Ġd o",
      "r i",
      "Ġs e",
      "c e",
      "Ġw h",
      "c h",
      "c t",
      "t er",
      "Ġl i",
      "i ll",
      "om e",
      "t h",
      "Ġg o",
      "Ġth is",
      "Ġa re",
      "Ġn ot",
      "Ġa t",
      "i l",
      "Ġha ve",
      "Ġ 1",
      "ou ld",
      "n ow",
      "i ght",
      "an t",
      "us t",
      "Ġn e",
      "at ion",
      "o p",
      "w e",
      "a in",
      "y e",
      "Ġd e",
      "u n",
      "Ġf r",
      "g e",
      "Ġh is",
      "Ġ ,",
      "Ġs o",
      "Ġthe y",
      "u l",
      "Ġa l",
      "Ġm o",
      "Ġ \"",
      "he r",
      ".. .",
      "Ġk now",
      "Ġc an",
      "ou r",
      "o l",
      "Ġa ll",
      "p p",
      "Ġa b",
      "u m",
      "Ġw hat",
      "Ġs h",
      "Ġm y",
      "Ġc on",
      "Ġ v",
      "es t",
      "i f",
      "Ġ ?",
      "Ġo r",
      "Ġyou r",
      "Ġw he",
      "i e",
      "is t",
      "er s",
      "Ġthe re",
      "q u",
      "a b",
      "Ġb y",
      "Ġfr om",
      "Ġb ut",
      "Ġc om",
      "on e",
      "Ġs u",
      "ar t",
      "es s",
      "Ġon e",
      "Ġ 2",
      "ha n",
      "p e",
      "s o",
      "re d",
      "Ġs he",
      "Ġhe r",
      "o s",
      "i g",
      "Ġu p",
      "all y",
      "Ġw or",
      "Ġt r",
      "Ġha d",
      "a h",
      "Ġs a",
      "' re",
      "at e",
      "Ġh im",
      "ver y",
      "Ġp l",
      "Ġ out",
      "oo k",
      "re s",
      "ac k",
      "oo d",
      "n t",
      "Ġ us",
      "Ġli ke",
      "Ġl e",
      "Ġp ro",
      "am e",
      "Ġn o",
      "i ve",
      "e m",
      "Ġe x",
      "a k",
      "c k",
      "Ġ (",
      "' m",
      "a ke",
      "Ġwe re",
      "f e",
      "in k",
      "w hat",
      "â Ģ",
      "Ġg et",
      "Ġab out",
      "Ġd on",
      "as t",
      "on g",
      "in d",
      "a p",
      "ou nd",
      "it y",
      "ar d",
      "r y",
      "o h",
      "e l",
      "Ġj ust",
      "Ġt e",
      "or t",
      "a g",
      "ic h",
      "Ġm an",
      "i es",
      "Ġwh o",
      "Ġa r",
      "Ġ1 9",
      "Ġd id",
      "Ġhe re",
      "Ġw ill",
      "b er",
      "ye ah",
      "Ġi f",
      "n o",
      "Ġc h",
      "in e",
      "Ġthe m",
      "im e",
      "Ġu n",
      "Ġs ome",
      "a re",
      "Ġw ant",
      "Ġw ould",
      "t o",
      "u d",
      "o re",
      "Ġ2 0",
      "Ġb r",
      "Ġ '",
      "Ġth ink",
      "v en",
      "' ll",
      "ou s",
      "the r",
      "Ġwhe n",
      "Ġan y",
      "Ġp e",
      "Ġl o",
      "m ent",
      "Ġr ight",
      "h ing",
      "Ġg ot",
      "Ġa m",
      "Ġha s",
      "us e",
      "Ġf e",
      "c a",
      "it t",
      "Ġc o",
      "Ġwh ich",
      "ic e",
      "b ut",
      "Ġa g",
      "ou gh",
      "ow n",
      "Ġse e",
      "Ġg r",
      "t hat",
      "id e",
      "Ġp r",
      "Ġc l",
      "Ġsa id",
      "i a",
      "Ġs ay",
      "i v",
      "u re",
      "Ġr o",
      "t e",
      "n e",
      "Ġ en",
      "Ġt ime",
      "w ay",
      "Ġn ow",
      "y es",
      "Ġt w",
      "i an",
      "Ġthe n",
      "i p",
      "o d",
      "Ġbe en",
      "Ġa f",
      "e p",
      "Ġs p",
      "ac e",
      "ic k",
      "op le",
      "Ġthe ir",
      "b e",
      "Ġ qu",
      "r a",
      "' ve",
      "Ġl ook",
      "o k",
      "Ġmo re",
      "n a",
      "l f",
      "is h",
      "re at",
      "Ġpe ople",
      "- -",
      "Ġgo ing",
      "Ġo ther",
      "ar s",
      "w h",
      "m p",
      "Ġof f",
      "a ge",
      "Ġh ow",
      "it e",
      "re e",
      "ot her",
      "ac t",
      "Ġc ould",
      "ar y",
      "c i",
      "Ġo ver",
      "Ġ =",
      "Ġb ack",
      "o se",
      "Ġ ye",
      "Ġg ood",
      "ir st",
      "ca use",
      "as s",
      "er m",
      "ing s",
      "Ġ very",
      "ou nt",
      "we ll",
      "on d",
      "Ġtw o",
      "Ġb l",
      "Ġwor k",
      "Ġp art",
      "b le",
      "u e",
      "Ġa d",
      "Ġcom p",
      "Ġc ha",
      "Ġt han",
      "Ġf irst",
      "Ġne w",
      "f or",
      "i re",
      "an s",
      "p er",
      "Ġb o",
      "om et",
      "p t",
      "at ed",
      "Ġm ar",
      "as e",
      "w he",
      "Ġ Ġ",
      "Ġin to",
      "ion s",
      "Ġd own",
      "Ġw ay",
      "he d",
      "a v",
      "0 0",
      "d e",
      "al k",
      "Ġal so",
      "or n",
      "ad e",
      "Ġc ome",
      "Ġc all",
      "Ġwhe re",
      "i z",
      "itt le",
      "Ġp o",
      "nd er",
      "ou ght",
      "Ġwe ll",
      "at er",
      "Ġ y",
      "ac h",
      "c l",
      "Ġg u",
      "Ġ our",
      "Ġe very",
      "Ġon ly",
      "u b",
      "Ġd ay",
      "Ġl ittle",
      "Ġag ain",
      "Ġaf ter",
      "an ce",
      "a ve",
      "i ld",
      "Ġs c",
      "v ed",
      "Ġa ct",
      "f f",
      "Ġa c",
      "Ġbe t",
      "Ġs omet",
      "Ġf l",
      "Ġpl ay",
      "ur n",
      "w n",
      "am p",
      "t y",
      "Ġd is",
      "Ġm ay",
      "Ġcom m",
      "Ġb u",
      "o g",
      "Ġbe cause",
      "Ġs pe",
      "re n",
      "Ġl et",
      "Ġthe se",
      "or d",
      "Ġne ed",
      "Ġcon t",
      "an g",
      "th is",
      "res s",
      "Ġt ake",
      "Ġm u",
      "ab le",
      "en ce",
      "i le",
      "Ġm ake",
      "se lf",
      "m y",
      ". \"",
      "Ġp re",
      "a u",
      "f ore",
      "g et",
      "Ġs ha",
      "or y",
      "Ġre ally",
      "p l",
      "Ġp er",
      "Ġw r",
      "Ġsh ould",
      "Ġs er",
      "Ġc ar",
      "r u",
      "the y",
      "Ġf o",
      "Ġa pp",
      "f t",
      "th ing",
      "l es",
      "is s",
      "ic al",
      "Ġu nder",
      "Ġte ll",
      "the re",
      "Ġha pp",
      "en s",
      "Ġth r",
      "i ed",
      "c ome",
      "ic t",
      "at her",
      "s h",
      "Ġp ut",
      "ig n",
      "Ġ er",
      "ul t",
      "d o",
      "Ġdo es",
      "le t",
      "Ġmu ch",
      "Ġ20 1",
      "v ing",
      "Ġto o",
      "on na",
      "Ġme an",
      "l and",
      "s he",
      "Ġc ount",
      "u ck",
      "Ġsomet hing",
      "in t",
      "Ġre s",
      "at es",
      "oo l",
      "a il",
      "Ġs m",
      "Ġg onna",
      "Ġl ong",
      "Ġit s",
      "Ġm ade",
      "Ġe ven",
      "e ct",
      "Ġc r",
      "y s",
      "on s",
      "' d",
      "Ġj o",
      "e nd",
      "h ow",
      "at h",
      "Ġt alk",
      "Ġbe fore",
      "od y",
      "Ġne ver",
      "Ġ' '",
      "` `",
      "i ous",
      "Ġre c",
      "Ġg reat",
      "Ġ âĢ",
      "Ġman y",
      "i ver",
      "it ed",
      "Ġi mp",
      "ad y",
      "m m",
      "Ġse c",
      "u ll",
      "Ġdid n",
      "Ġc han",
      "m an",
      "Ġre m",
      "Ġmo st",
      "d ay",
      "k s",
      "d u",
      "u ally",
      "i ly",
      "Ġn or",
      "t ing",
      "Ġbe l",
      "Ġm in",
      "ou se",
      "ok ay",
      "Ġha nd",
      "ri ght",
      "Ġhe l",
      "Ġli fe",
      "it ion",
      "u h",
      "p s",
      "Ġ 3",
      "t ain",
      "whe re",
      "or s",
      "Ġd if",
      "ation s",
      "w ard",
      "Ġye ars",
      "Ġh o",
      "Ġthr ough",
      "i x",
      "Ġd r",
      "i gh",
      "Ġk e",
      "Ġo ld",
      "Ġwor ld",
      "a w",
      "is e",
      "n ot",
      "Ġha r",
      "re nt",
      "âĢ Ŀ",
      "Ġc our",
      "f ul",
      "Ġst ill",
      "c es",
      "Ġth ree",
      "ct ion",
      "Ġd es",
      "ri ed",
      "Ġth ought",
      "Ġth ing",
      "Ġ20 0",
      "i al",
      "Ġth ose",
      "Ġth ings",
      "c ess",
      "Ġlo ve",
      "ll ow",
      "v es",
      "Ġp h",
      "Ġp res",
      "l i",
      "ak ing",
      "Ġf ound",
      "in ce",
      "g in",
      "Ġs ch",
      "Ġsh ow",
      "Ġst art",
      "Ġw ent",
      "c he",
      "Ġm a",
      "Ġa way",
      "Ġc ame",
      "d er",
      "Ġh ome",
      "Ġm ust",
      "Ġl ast",
      "Ġus ed",
      "Ġcall ed",
      "one y",
      "Ġre p",
      "os s",
      "Ġe ar",
      "ot h",
      "Ġf ind",
      "Ġas k",
      "Ġdo ing",
      "Ġin d",
      "ve l",
      "ter n",
      "g r",
      "Ġwh y",
      "er ic",
      "ent s",
      "Ġfor m",
      "Ġe nd",
      "Ġp ol",
      "Ġc he",
      "ri end",
      "Ġ !",
      "im es",
      "u p",
      "x t",
      "Ġm at",
      "Ġg ive",
      "Ġw ar",
      "Ġhel p",
      "ar k",
      "\" .",
      "Ġbe ing",
      "Ġo k",
      "wh y",
      "c ed",
      "p le",
      "Ġsu ch",
      "Ġo wn",
      "Ġf am",
      "g an",
      "for m",
      "en ed",
      "Ġn ight",
      "m o",
      "Ġs y",
      "Ġm on",
      "Ġh ouse",
      "an y",
      "Ġn ame",
      "Ġm r",
      "Ġc ity",
      "Ġw om",
      "Ġb ig",
      "l ic",
      "ir l",
      "Ġf in",
      "Ġen g",
      "Ġs ame",
      "Ġre g",
      "al s",
      "Ġ yeah",
      "Ġcha r",
      "n g",
      "d on",
      "Ġk ind",
      "i b",
      "Ġl ot",
      "way s",
      "a it",
      "l o",
      "e ver",
      "y ing",
      "Ġo p",
      "Ġdif fe",
      "Ġw on",
      "Ġch ild",
      "Ġe l",
      "Ġg en",
      "a ir",
      "Ġc are",
      "Ġhe ad",
      "Ġat t",
      "n ing",
      "b ody",
      "Ġsu pp",
      "Ġpl ace",
      "Ġp ers",
      "Ġcon s",
      "Ġn um",
      "Ġam eric",
      "Ġst r",
      "c o",
      "Ġ yes",
      "Ġk ill",
      "Ġgo d",
      "Ġfe el",
      "c om",
      "Ġsch ool",
      "Ġc ent",
      "Ġc ap",
      "Ġ1 8",
      "Ġm ight",
      "Ġs l",
      "Ġd ist",
      "re st",
      "as ed",
      "Ġre l",
      "out h",
      "Ġf riend",
      "Ġt urn",
      "m e",
      "ation al",
      "Ġan other",
      "Ġus e",
      "Ġar ound",
      "t s",
      "at ing",
      "Ġs et",
      "ur ing",
      "b r",
      ") .",
      "em ber",
      "s s",
      "Ġm om",
      "Ġ 4",
      "m ber",
      "g o",
      "Ġe le",
      "\" ,",
      "i o",
      "Ġm us",
      "Ġsu re",
      "Ġ z",
      "g g",
      "ow er",
      "ut e",
      "Ġf our",
      "Ġe v",
      "Ġal ways",
      "Ġg irl",
      "l ed",
      "t on",
      "Ġs ur",
      "Ġ ed",
      "Ġst ates",
      "Ġp le",
      ") ,",
      "l ook",
      "pe ct",
      "m b",
      "Ġk ing",
      "we en",
      "t han",
      "Ġm oney",
      "an k",
      "Ġye ar",
      "Ġle ft",
      "â Ļ",
      "Ġm et",
      "Ġun ited",
      "Ġs w",
      "au ght",
      "Ġok ay",
      "Ġbet ter",
      "cl ud",
      "Ġre al",
      "at ch",
      "Ġany thing",
      "wh o",
      "a z",
      "Ġke ep",
      "Ġ ent",
      "Ġin v",
      "ul ar",
      "ĠâĢ ľ",
      "Ġsec ond",
      "or ry",
      "Ġo h",
      "Ġwh ile",
      "Ġr un",
      "i ble",
      "ĠĠ ĠĠ",
      "ic s",
      "Ġh igh",
      "Ġin st",
      "n ess",
      "Ġbel ie",
      "t en",
      "Ġb it",
      "Ġf ar",
      "Ġdiffe rent",
      "Ġbet ween",
      "Ġd one",
      "Ġc le",
      "c an",
      "whe n",
      "id ent",
      "Ġto ld",
      "Ġin te",
      "âĻ ª",
      "fe ct",
      "Ġwor d",
      "he y",
      "Ġ 5",
      "ter s",
      "Ġb us",
      "Ġst ate",
      "Ġst ud",
      "Ġpo int",
      "Ġin s",
      "ir d",
      "Ġ |",
      "Ġc a",
      "Ġm en",
      "Ġe ver",
      "ci al",
      ", \"",
      "Ġp op",
      "u al",
      "Ġknow n",
      "Ġsu b",
      "Ġpers on",
      "Ġw ater",
      "Ġs ing",
      "am es",
      "Ġb ook",
      "he re",
      "Ġo b",
      "j ust",
      "as on",
      "Ġc ol",
      "Ġu h",
      "is hed",
      "Ġb est",
      "Ġb re",
      "Ġre t",
      "ak es",
      "ha r",
      "j ect",
      "p h",
      "Ġas s",
      "it s",
      "Ġg l",
      "Ġb oth",
      "Ġu nt",
      "u g",
      "Ġto ok",
      "c y",
      "Ġco ll",
      "Ġst op",
      "b y",
      "m s",
      "Ġf ather",
      "Ġde c",
      "Ġp ar",
      "in s",
      "iver s",
      "Ġ erm",
      "Ġ19 9",
      "l ing",
      "c on",
      "Ġne xt",
      "Ġin clud",
      "c er",
      "Ġ ;",
      "n er",
      "Ġe ach",
      "Ġfo llow",
      "âĢ Ļ",
      "r ic",
      "Ġnot hing",
      "it ies",
      "at ive",
      "or k",
      "ce pt",
      "oh n",
      "Ġl ater",
      "Ġm iss",
      "st and",
      "Ġcour se",
      "o f",
      "u nd",
      "ol og",
      "g er",
      "Ġg re",
      "ou n",
      "as h",
      "v ie",
      "Ġpro du",
      "Ġp ass",
      "Ġs im",
      "Ġm other",
      "Ġwe e",
      "r ow",
      "Ġs ir",
      "re t",
      "Ġl ar",
      "Ġsa w",
      "un e",
      "Ġli ght",
      "Ġunt il",
      "Ġm ed",
      "ro ss",
      "ct or",
      "ver n",
      "Ġse em",
      "Ġad d",
      "Ġnum ber",
      "the n",
      "Ġsm all",
      "b o",
      "get her",
      "a red",
      "Ġ -",
      "is ion",
      "Ġac c",
      "ne w",
      "Ġl ist",
      "Ġact ually",
      "u res",
      "Ġgen er",
      "re am",
      "o ck",
      "Ġf un",
      "a le",
      "op e",
      "Ġbo y",
      "if e",
      "Ġde p",
      "Ġd uring",
      "Ġon ce",
      "Ġyou ng",
      "Ġst e",
      "Ġfam ily",
      "Ġdoes n",
      "i er",
      "os ed",
      "a f",
      "Ġs ince",
      "Ġi de",
      "c ame",
      "i et",
      "l ess",
      "i red",
      "r on",
      "Ġw ait",
      "d id",
      "Ġwant ed",
      "n y",
      "Ġin ter",
      "Ġs outh",
      "Ġel se",
      "ver s",
      "Ġro om",
      "Ġp ub",
      "Ġagain st",
      "1 9",
      "Ġnor th",
      "Ġhar d",
      "an e",
      "Ġst and",
      "Ġameric an",
      "ut h",
      "g ed",
      "m er",
      "if ic",
      "Ġd ire",
      "Ġen ough",
      "Ġm ain",
      "Ġto gether",
      "Ġgo vern",
      "ot e",
      "Ġar t",
      "Ġf act",
      "Ġb ad",
      "Ġpro ble",
      "Ġa ir",
      "Ġ 6",
      "ab ly",
      "Ġop en",
      "Ġa p",
      "u c",
      "Ġh um",
      "Ġlo c",
      "Ġt ri",
      "Ġevery thing",
      "Ġbe came",
      "n ed",
      "Ġ --",
      "Ġb ro",
      "Ġse en",
      "Ġl a",
      "Ġli ve",
      "ot t",
      "Ġb ar",
      "Ġs on",
      "s on",
      "Ġc ur",
      "Ġm il",
      "un g",
      "Ġfe w",
      "r ist",
      "in es",
      "Ġto wn",
      "Ġs orry",
      "Ġp ri",
      "Ġwith out",
      "Ġm ind",
      "Ġmus ic",
      "Ġre st",
      "Ġs ide",
      "ll o",
      "Ġun ivers",
      "g ood",
      "Ġs k",
      "Ġme et",
      "Ġs ix",
      "f l",
      "Ġsay s",
      "is ter",
      "Ġst ay",
      "he s",
      "Ġe as",
      "Ġf ive",
      "Ġl and",
      "Ġte am",
      "Ġre ad",
      "Ġt imes",
      "Ġf il",
      "Ġgr ou",
      "in ess",
      "p r",
      "Ġtr ans",
      "Ġqu ite",
      "Ġpro v",
      "Ġs ign",
      "ur y",
      "Ġto day",
      "Ġhe ar",
      "Ġimp ort",
      "re ady",
      "Ġex p",
      "is m",
      "Ġj ohn",
      "Ġd ri",
      "Ġd ied",
      "at t",
      "Ġchild ren",
      "Ġk id",
      "in a",
      "mo st",
      "Ġple ase",
      "Ġcom ing",
      "orn ing",
      "than k",
      "Ġ19 8",
      "Ġle ave",
      "Ġc al",
      "Ġlook ing",
      "s u",
      "Ġqu est",
      "Ġth ough",
      "a pp",
      "is ed",
      "se l",
      "ut ion",
      "r al",
      "Ġe mp",
      "Ġunder stand",
      "Ġf ace",
      "er tain",
      "Ġs it",
      "Ġl aw",
      "Ġbelie ve",
      "it al",
      "Ġmo ve",
      "Ġc or",
      "Ġhapp ened",
      "Ġn ice",
      "Ġbu ild",
      "h o",
      "Ġday s",
      "Ġl ine",
      "Ġjo b",
      "b all",
      "Ġw alk",
      "t a",
      "e x",
      "Ġwho le",
      "Ġs le",
      "it her",
      "re w",
      "an ge",
      "ment s",
      "Ġg e",
      "st em",
      "Ġm ill",
      "Ġcount y",
      "u ff",
      "Ġwom an",
      "Ġde ath",
      "Ġcount ry",
      "Ġb as",
      "Ġis n",
      "Ġget ting",
      "Ġp ower",
      "Ġg ame",
      "on t",
      "Ġb ab",
      "Ġre le",
      "Ġin c",
      "Ġd ad",
      "Ġinte rest",
      "Ġne ar",
      "Ġy et",
      "Ġf ore",
      "Ġm orning",
      "c c",
      "Ġhe ard",
      "ie ld",
      "en se",
      "Ġrec ord",
      "Ġn at",
      "Ġp oss",
      "00 0",
      "Ġc e",
      "ist s",
      "Ġw in",
      "Ġle ad",
      "Ġp at",
      "Ġapp e",
      "ant s",
      "a ut",
      "ct ed",
      "Ġpl an",
      "iz ed",
      "Ġhe art",
      "Ġs ort",
      "an na",
      "d y",
      "v ent",
      "Ġe yes",
      "Ġ es",
      "Ġho ld",
      "Ġhis t",
      "Ġtr y",
      "Ġs ong",
      "Ġhim self",
      "Ġser v",
      "Ġfo ot",
      "f r",
      "Ġg ave",
      "et s",
      "en e",
      "Ġ19 7",
      "Ġha ving",
      "m a",
      "l ish",
      "Ġde ad",
      "as ter",
      "Ġw ind",
      "aught er",
      "you r",
      "Ġsy stem",
      "iz e",
      "Ġg i",
      "c le",
      "Ġe at",
      "i k",
      "us s",
      "Ġimport ant",
      "in ed",
      "Ġc ase",
      "Ġp ay",
      "Ġoff ic",
      "Ġh our",
      "Ġso on",
      "Ġal ready",
      "t ed",
      "Ġan s",
      "Ġ 7",
      "Ġha lf",
      "m or",
      "Ġgu y",
      "li ke",
      "Ġbr other",
      "Ġg erm",
      "Ġk new",
      "Ġs we",
      "Ġask ed",
      "Ġt y",
      "Ġunivers ity",
      "Ġ 8",
      "Ġwr ong",
      "Ġh ur",
      "t r",
      "? \"",
      "Ġn ational",
      "Ġi ll",
      "Ġup on",
      "2 0",
      "Ġbl ack",
      "w ith",
      "Ġrem ember",
      "Ġb orn",
      "ward s",
      "is on",
      "g t",
      "Ġsay ing",
      "Ġp a",
      "Ġf ull",
      "st er",
      "Ġpro b",
      "Ġwom en",
      "vel op",
      "iv es",
      "Ġv o",
      ". âĢĿ",
      "Ġtalk ing",
      "Ġ1 0",
      "Ġma j",
      "w er",
      "c hed",
      "Ġme ans",
      "Ġor der",
      "Ġch rist",
      "Ġmon th",
      "Ġre f",
      "Ġr ound",
      "Ġdo or",
      "Ġcon st",
      "Ġbe gan",
      "Ġret urn",
      "Ġd iv",
      "Ġpres ident",
      "Ġt a",
      "Ġpre t",
      "âĢ ĵ",
      "be cause",
      "Ġpro f",
      "Ġtr ying",
      "Ġd et",
      "Ġstart ed",
      "ar ch",
      "ow s",
      "Ġcont in",
      "Ġe qu",
      "ain s",
      "Ġ _",
      "Ġcon f",
      "Ġpart y",
      "m ay",
      "ic ally",
      "ur al",
      "Ġal ong",
      "ag es",
      "d en",
      "Ġs qu",
      "Ġf ight",
      "Ġof ten",
      "Ġbr ing",
      "Ġo ri",
      "m on",
      "Ġpr om",
      "Ġwh ite",
      "id ed",
      "Ġr a",
      "Ġsha ll",
      "Ġcl ass",
      "ro p",
      "Ġs ound",
      "s ide",
      "Ġc ertain",
      "Ġto p",
      "Ġex pl",
      "Ġcomm un",
      "Ġ 9",
      "Ġh on",
      "Ġf all",
      "Ġmar k",
      "Ġhow ever",
      "Ġw ife",
      "Ġf uck",
      "Ġide a",
      "l a",
      "che s",
      "c ent",
      "il ity",
      "Ġpr ot",
      "Ġg one",
      "s ome",
      "Ġre d",
      "Ġst ory",
      "Ġde velop",
      "Ġp et",
      "Ġle g",
      "Ġchan ge",
      "Ġde f",
      "se e",
      "Ġle ar",
      "Ġ19 6",
      "Ġm id",
      "r ict",
      "Ġb ed",
      "ate ly",
      "Ġpret ty",
      "ne y",
      "Ġhapp en",
      "Ġh or",
      "Ġs ent",
      "Ġare a",
      "e red",
      "Ġgrou p",
      "c ha",
      "r ap",
      "Ġ hat",
      "Ġmat ter",
      "am ed",
      "Ġc reat",
      "Ġl ess",
      "Ġplay ed",
      "Ġp ur",
      "Ġt er",
      "at or",
      "er ing",
      "at s",
      "u red",
      "l t",
      "ion al",
      "âĢ ľ",
      "Ġ1 5",
      "ak en",
      "Ġbus iness",
      "Ġgo es",
      "Ġsh ort",
      "Ġ x",
      "Ġj u",
      "Ġgovern ment",
      "u ro",
      "Ġab le",
      "te nd",
      "id es",
      "Ġin t",
      "Ġj e",
      "Ġst re",
      "Ġcomp any",
      "it er",
      "um p",
      "ra w",
      "Ġlo st",
      "Ġsome one",
      "Ġsle ep",
      "Ġw atch",
      "Ġex t",
      "j o",
      "Ġ [",
      "i am",
      "Ġmom ent",
      "Ġis land",
      "us h",
      "pe nd",
      "Ġan im",
      "Ġ1 7",
      "ren ce",
      "Ġproble m",
      "Ġt en",
      "l er",
      "Ġsh o",
      "Ġ ...",
      "h m",
      "Ġw anna",
      "e en",
      "Ġp ap",
      "Ġnew s",
      "Ġt erm",
      "pp ed",
      "Ġw ond",
      "g y",
      "sh ip",
      "en g",
      "Ġpol it",
      "Ġs at",
      "ap an",
      "Ġm aking",
      "Ġsh ip",
      "Ġwas n",
      "Ġbe aut",
      "al th",
      "Ġp ain",
      "Ġf ine",
      "ic es",
      "Ġpart ic",
      "Ġb ur",
      "p ort",
      "il t",
      "l s",
      "Ġe m",
      "Ġlar ge",
      "ri es",
      "an u",
      "Ġex amp",
      "Ġpres ent",
      "Ġgu ys",
      "Ġcont ro",
      "Ġtr ue",
      "Ġprob ably",
      "z e",
      "Ġwee k",
      "ent ion",
      "Ġs ou",
      "ain ed",
      "Ġex per",
      "Ġsu c",
      "Ġa ge",
      "Ġcom es",
      "Ġdr ink",
      "o c",
      "ac es",
      "c ri",
      "Ġ ve",
      "Ġs um",
      "Ġyour self",
      "le y",
      "Ġt re",
      "am a",
      "Ġde l",
      "Ġf ree",
      "Ġeng lish",
      "Ġo per",
      "Ġthan k",
      "Ġv al",
      "! \"",
      "Ġp ie",
      "Ġc ut",
      "Ġgo ld",
      "h uh",
      "ha ve",
      "ian s",
      "Ġv is",
      "Ġbab y",
      "Ġad v",
      "u es",
      "Ġd ou",
      "Ġori gin",
      "Ġh ot",
      "Ġf ire",
      "Ġwork ing",
      "h y",
      "Ġhand s",
      "Ġbl ood",
      "Ġha ven",
      "us ed",
      "Ġlook ed",
      "i ent",
      "Ġv ar",
      "Ġw est",
      "g es",
      "Ġs al",
      "Ġi m",
      "e very",
      "Ġal most",
      "Ġb ody",
      "ang u",
      "Ġbe come",
      "Ġst ation",
      "ul ation",
      "c han",
      "Ġd an",
      "Ġear ly",
      "Ġh ope",
      "Ġbr it",
      "Ġfil m",
      "Ġdist rict",
      "Ġde al",
      "Ġag o",
      "Ġwould n",
      "Ġpub lic",
      "Ġi d",
      "Ġp os",
      "Ġr om",
      "gr am",
      "Ġre ady",
      "Ġro ck",
      "h ip",
      "Ġin de",
      "Ġmo vie",
      "Ġj apan",
      "Ġad m",
      "Ġro ad",
      "Ġs ci",
      "Ġch ur",
      "Ġo cc",
      "m en",
      "Ġso l",
      "Ġm ag",
      "Ġb all",
      "Ġmay be",
      "Ġy ork",
      "ĠâĢ ĵ",
      "Ġp ick",
      "ot s",
      "are nt",
      "Ġgener al",
      "Ġm er",
      "h ind",
      "Ġo pp",
      "Ġe ight",
      "Ġ19 4",
      "Ġdis c",
      "in o",
      "Ġf ood",
      "Ġin tern",
      "Ġte le",
      "Ġgi ven",
      "ent y",
      "Ġfr ance",
      "h is",
      "Ġbre ak",
      "ple ase",
      "Ġcle ar",
      "Ġl ate",
      "Ġal b",
      "ver al",
      "Ġspe c",
      "ha m",
      "Ġ est",
      "Ġfriend s",
      "anu ary",
      "Ġquest ion",
      "ie f",
      "p ar",
      "Ġbe gin",
      "Ġt on",
      "Ġst uff",
      "Ġm ur",
      "Ġmy self",
      "Ġa w",
      "b orn",
      "g ot",
      "Ġcl ose",
      "Ġspe ak",
      "et y",
      "m r",
      "ard s",
      "Ġde v",
      "Ġor gan",
      "Ġa v",
      "Ġrele ased",
      "Ġgr and",
      "Ġre ce",
      "Ġbr ought",
      "Ġdo g",
      "Ġm ic",
      "Ġmar ch",
      "Ġs un",
      "Ġcomp le",
      "Â ł",
      "es e",
      "or m",
      "Ġkill ed",
      "Ġp ict",
      "Ġfr ont",
      "Ġp ast",
      "in c",
      "Ġst ar",
      "Ġ1 6",
      "Ġle ast",
      "Ġp ort",
      "n s",
      "Ġs il",
      "Ġl angu",
      "he ad",
      "Ġpro gram",
      "Ġd aughter",
      "Ġhum an",
      "Ġf re",
      "Ġser ies",
      "Ġcour t",
      "Ġword s",
      "if ul",
      "Ġj anuary",
      "Ġse veral",
      "Ġhapp y",
      "Ġ ``",
      "iv ed",
      "i i",
      "Ġt aken",
      "Ġre ason",
      "sel ves",
      "ha ps",
      "Ġ1 2",
      "Ġcoll e",
      "r ing",
      "Ġgu ess",
      "w as",
      "Ġexamp le",
      "Ġan n",
      "s c",
      "Ġbe hind",
      "ud e",
      "ious ly",
      "Ġc amp",
      "it ing",
      "ut es",
      "b ed",
      "un t",
      "Ġb and",
      "Ġt em",
      "Ġin form",
      "Ġdes ign",
      "h i",
      "Ġc ou",
      "ll y",
      "Ġe uro",
      "Ġcomm on",
      "art ment",
      "olog y",
      "Ġprof ess",
      "o ve",
      "Ġ19 5",
      "Ġmaj or",
      "Ġh it",
      "Ġv ir",
      "Ġrep ort",
      "b s",
      "Ġr ad",
      "Ġmill ion",
      "Ġso ld",
      "Ġmar ried",
      "au gh",
      "Ġt aking",
      "r act",
      "Ġr ather",
      "Ġj ack",
      "Ġall ow",
      "Ġm akes",
      "i qu",
      "ac ed",
      "Ġp en",
      "al ity",
      "Ġchar ac",
      "Ġchur ch",
      "Ġa ust",
      "Ġv ill",
      "ou d",
      "Ġr iver",
      "for d",
      "Ġsomet imes",
      "Ġal one",
      "Ġqu ick",
      "af ter",
      "Ġf ig",
      "Ġd ream",
      "und red",
      "p ed",
      "Ġsupp ort",
      "f ic",
      "Ġco st",
      "Ġb ill",
      "Ġp ark",
      "Ġe ither",
      "ren ch",
      "Ġtr ain",
      "Ġli ving",
      "Ġhist ory",
      ", âĢĿ",
      "Ġse a",
      "m ore",
      "Ġi r",
      "Ġstr ong",
      "o ke",
      "t w",
      "itt en",
      "Ġ âĻª",
      "s er",
      "i um",
      "i ence",
      "he llo",
      "on es",
      "Ġatt ack",
      "en cy",
      "os p",
      "Ġturn ed",
      "b and",
      "am ent",
      "Ġother s",
      "Ġf a",
      "Ġc ir",
      "at ic",
      "b l",
      "Ġ &",
      "f ull",
      "Ġspe cial",
      "p ro",
      "Ġt est",
      "Ġsuc cess",
      "Ġt ou",
      "Ġear th",
      "Ġm ess",
      "um b",
      "Ġalb um",
      "Ġp al",
      "wh ich",
      "Ġlist en",
      "Ġth ird",
      "Ġc op",
      "Ġthink ing",
      "d le",
      "Ġm ad",
      "Ġres p",
      "Ġc oun",
      "Ġoff ice",
      "ll ing",
      "Ġm ount",
      "g u",
      "Ġh undred",
      "Ġcould n",
      "Ġeuro pe",
      "ent ly",
      "Ġgr ow",
      "mb ers",
      "Ġ 0",
      "id ge",
      "ag ue",
      "Ġstre et",
      "el t",
      "Ġele ct",
      "Ġmr s",
      "Ġcap tain",
      "Ġw all",
      "Ġto t",
      "em ent",
      "Ġche ck",
      "f ort",
      "Ġd ie",
      "Ġst ru",
      "may be",
      "Ġlook s",
      "act ly",
      "Ġf if",
      "Ġwith in",
      "Ġn amed",
      "Ġe ast",
      "Ġbeaut iful",
      "Ġl ady",
      "c r",
      "i or",
      "b it",
      "Ġf ur",
      "Ġd am",
      "m ing",
      "itt ing",
      "m ar",
      "Ġd a",
      "pt ember",
      "Ġus ually",
      "d om",
      "Ġbrit ish",
      "f fect",
      "Ġhe ld",
      "Ġbuild ing",
      "Ġg un",
      "Ġwond er",
      "Ġc ross",
      "Ġ $",
      "et h",
      "ri l",
      "ber t",
      "Ġpo or",
      "Ġf air",
      "Ġst ep",
      "Ġwant s",
      "Ġins ide",
      "ther n",
      "Ġplay ing",
      "Ġapp ro",
      "Ġserv ice",
      "Ġb ri",
      "Ġex pect",
      "Ġc re",
      "Ġde ar",
      "Ġam ong",
      "Ġcha mp",
      "Ġtr ou",
      "er t",
      "og rap",
      "id er",
      "Ġbu ilt",
      "re ad",
      "Ġmin ute",
      "as k",
      "Ġse ason",
      "l ished",
      "ag ed",
      "Ġv ict",
      "Ġgr ound",
      "Ġl ay",
      "Ġle av",
      "ke y",
      "e ad",
      "Ġswe et",
      "Ġres ult",
      "e e",
      "Ġsu per",
      "or ge",
      "s y",
      "Ġi mm",
      "Ġfoot ball",
      "b ru",
      "un k",
      "Ġr u",
      "Ġte ac",
      "full y",
      "m ed",
      "Ġb ir",
      "es tern",
      "Ġde ce",
      "Ġre qu",
      "p ut",
      "v ision",
      "s ha",
      "ond on",
      "Ġac ross",
      "Ġsing le",
      "Ġd ark",
      "Ġmin utes",
      "Ġfollow ing",
      "Ġout side",
      "Ġper form",
      "Ġmonth s",
      "iv ing",
      "Ġgre en",
[...]
